{
  "0": "\u0000",
  "1": "\u0001",
  "2": "\u0002",
  "3": "\u0003",
  "4": "\u0004",
  "5": "\u0005",
  "6": "\u0006",
  "7": "\u0007",
  "8": "\b",
  "9": "\t",
  "10": "\n",
  "11": "\u000b",
  "12": "\f",
  "13": "\r",
  "14": "\u000e",
  "15": "\u000f",
  "16": "\u0010",
  "17": "\u0011",
  "18": "\u0012",
  "19": "\u0013",
  "20": "\u0014",
  "21": "\u0015",
  "22": "\u0016",
  "23": "\u0017",
  "24": "\u0018",
  "25": "\u0019",
  "26": "\u001a",
  "27": "\u001b",
  "28": "\u001c",
  "29": "\u001d",
  "30": "\u001e",
  "31": "\u001f",
  "32": " ",
  "33": "!",
  "34": "\"",
  "35": "#",
  "36": "$",
  "37": "%",
  "38": "&",
  "39": "'",
  "40": "(",
  "41": ")",
  "42": "*",
  "43": "+",
  "44": ",",
  "45": "-",
  "46": ".",
  "47": "/",
  "48": "0",
  "49": "1",
  "50": "2",
  "51": "3",
  "52": "4",
  "53": "5",
  "54": "6",
  "55": "7",
  "56": "8",
  "57": "9",
  "58": ":",
  "59": ";",
  "60": "<",
  "61": "=",
  "62": ">",
  "63": "?",
  "64": "@",
  "65": "A",
  "66": "B",
  "67": "C",
  "68": "D",
  "69": "E",
  "70": "F",
  "71": "G",
  "72": "H",
  "73": "I",
  "74": "J",
  "75": "K",
  "76": "L",
  "77": "M",
  "78": "N",
  "79": "O",
  "80": "P",
  "81": "Q",
  "82": "R",
  "83": "S",
  "84": "T",
  "85": "U",
  "86": "V",
  "87": "W",
  "88": "X",
  "89": "Y",
  "90": "Z",
  "91": "[",
  "92": "\\",
  "93": "]",
  "94": "^",
  "95": "_",
  "96": "`",
  "97": "a",
  "98": "b",
  "99": "c",
  "100": "d",
  "101": "e",
  "102": "f",
  "103": "g",
  "104": "h",
  "105": "i",
  "106": "j",
  "107": "k",
  "108": "l",
  "109": "m",
  "110": "n",
  "111": "o",
  "112": "p",
  "113": "q",
  "114": "r",
  "115": "s",
  "116": "t",
  "117": "u",
  "118": "v",
  "119": "w",
  "120": "x",
  "121": "y",
  "122": "z",
  "123": "{",
  "124": "|",
  "125": "}",
  "126": "~",
  "127": "",
  "128": "�",
  "129": "�",
  "130": "�",
  "131": "�",
  "132": "�",
  "133": "�",
  "134": "�",
  "135": "�",
  "136": "�",
  "137": "�",
  "138": "�",
  "139": "�",
  "140": "�",
  "141": "�",
  "142": "�",
  "143": "�",
  "144": "�",
  "145": "�",
  "146": "�",
  "147": "�",
  "148": "�",
  "149": "�",
  "150": "�",
  "151": "�",
  "152": "�",
  "153": "�",
  "154": "�",
  "155": "�",
  "156": "�",
  "157": "�",
  "158": "�",
  "159": "�",
  "160": "�",
  "161": "�",
  "162": "�",
  "163": "�",
  "164": "�",
  "165": "�",
  "166": "�",
  "167": "�",
  "168": "�",
  "169": "�",
  "170": "�",
  "171": "�",
  "172": "�",
  "173": "�",
  "174": "�",
  "175": "�",
  "176": "�",
  "177": "�",
  "178": "�",
  "179": "�",
  "180": "�",
  "181": "�",
  "182": "�",
  "183": "�",
  "184": "�",
  "185": "�",
  "186": "�",
  "187": "�",
  "188": "�",
  "189": "�",
  "190": "�",
  "191": "�",
  "192": "�",
  "193": "�",
  "194": "�",
  "195": "�",
  "196": "�",
  "197": "�",
  "198": "�",
  "199": "�",
  "200": "�",
  "201": "�",
  "202": "�",
  "203": "�",
  "204": "�",
  "205": "�",
  "206": "�",
  "207": "�",
  "208": "�",
  "209": "�",
  "210": "�",
  "211": "�",
  "212": "�",
  "213": "�",
  "214": "�",
  "215": "�",
  "216": "�",
  "217": "�",
  "218": "�",
  "219": "�",
  "220": "�",
  "221": "�",
  "222": "�",
  "223": "�",
  "224": "�",
  "225": "�",
  "226": "�",
  "227": "�",
  "228": "�",
  "229": "�",
  "230": "�",
  "231": "�",
  "232": "�",
  "233": "�",
  "234": "�",
  "235": "�",
  "236": "�",
  "237": "�",
  "238": "�",
  "239": "�",
  "240": "�",
  "241": "�",
  "242": "�",
  "243": "�",
  "244": "�",
  "245": "�",
  "246": "�",
  "247": "�",
  "248": "�",
  "249": "�",
  "250": "�",
  "251": "�",
  "252": "�",
  "253": "�",
  "254": "�",
  "255": "�",
  "256": "<|endoftext|>",
  "257": "he",
  "258": " t",
  "259": " a",
  "260": " s",
  "261": " w",
  "262": "nd",
  "263": " the",
  "264": "ed",
  "265": " and",
  "266": " to",
  "267": " b",
  "268": "in",
  "269": " h",
  "270": " wa",
  "271": "re",
  "272": "ou",
  "273": " f",
  "274": "it",
  "275": " l",
  "276": " c",
  "277": " d",
  "278": "er",
  "279": " he",
  "280": " m",
  "281": " p",
  "282": " was",
  "283": "om",
  "284": " T",
  "285": " o",
  "286": "ay",
  "287": "ar",
  "288": "is",
  "289": "ing",
  "290": "il",
  "291": " g",
  "292": "id",
  "293": "at",
  "294": "en",
  "295": " n",
  "296": " sa",
  "297": " ha",
  "298": " S",
  "299": " The",
  "300": "an",
  "301": "im",
  "302": "or",
  "303": "on",
  "304": " it",
  "305": " th",
  "306": "ll",
  "307": "le",
  "308": " H",
  "309": " her",
  "310": "ot",
  "311": "et",
  "312": "ir",
  "313": " She",
  "314": "es",
  "315": " He",
  "316": " in",
  "317": "ver",
  "318": "ut",
  "319": "ow",
  "320": " They",
  "321": "ck",
  "322": " e",
  "323": " u",
  "324": "ld",
  "325": " y",
  "326": "oo",
  "327": " said",
  "328": "ig",
  "329": " \"",
  "330": "ily",
  "331": " r",
  "332": " be",
  "333": "am",
  "334": " st",
  "335": " I",
  "336": "ce",
  "337": "ke",
  "338": " she",
  "339": "ve",
  "340": "pp",
  "341": "ith",
  "342": " with",
  "343": "Lily",
  "344": "On",
  "345": " on",
  "346": " you",
  "347": " of",
  "348": "ked",
  "349": "ri",
  "350": " so",
  "351": "nt",
  "352": " his",
  "353": " pl",
  "354": "ad",
  "355": "very",
  "356": " day",
  "357": " that",
  "358": " up",
  "359": " play",
  "360": " had",
  "361": "st",
  "362": " they",
  "363": " we",
  "364": " Lily",
  "365": " mom",
  "366": " for",
  "367": " B",
  "368": "el",
  "369": "un",
  "370": "ould",
  "371": "'s",
  "372": "my",
  "373": "The",
  "374": " li",
  "375": "ch",
  "376": "ent",
  "377": " happ",
  "378": " want",
  "379": "itt",
  "380": " sh",
  "381": "out",
  "382": "her",
  "383": " do",
  "384": "ly",
  "385": " not",
  "386": "ome",
  "387": "se",
  "388": " very",
  "389": "ound",
  "390": "end",
  "391": "all",
  "392": " wh",
  "393": "ime",
  "394": "ittle",
  "395": " k",
  "396": " time",
  "397": " little",
  "398": "al",
  "399": " there",
  "400": " ne",
  "401": "ht",
  "402": " M",
  "403": " re",
  "404": " happy",
  "405": " sm",
  "406": " big",
  "407": " is",
  "408": " It",
  "409": " but",
  "410": "ack",
  "411": " an",
  "412": " saw",
  "413": "riend",
  "414": ".\"",
  "415": " friend",
  "416": "ry",
  "417": " as",
  "418": "ra",
  "419": "One",
  "420": "ide",
  "421": "ake",
  "422": "'t",
  "423": "!\"",
  "424": "ug",
  "425": " loo",
  "426": "ved",
  "427": "ter",
  "428": " were",
  "429": "ore",
  "430": "Once",
  "431": " lo",
  "432": "ec",
  "433": " him",
  "434": " too",
  "435": " go",
  "436": " bo",
  "437": " se",
  "438": "irl",
  "439": " are",
  "440": " j",
  "441": " Tim",
  "442": "ard",
  "443": " wanted",
  "444": "ill",
  "445": " girl",
  "446": " upon",
  "447": " them",
  "448": " out",
  "449": " at",
  "450": "ur",
  "451": "ind",
  "452": " their",
  "453": "fu",
  "454": " sp",
  "455": "way",
  "456": " A",
  "457": " smil",
  "458": " did",
  "459": " could",
  "460": "hen",
  "461": " have",
  "462": "ain",
  "463": "art",
  "464": " ex",
  "465": "hed",
  "466": "rom",
  "467": " went",
  "468": " ar",
  "469": "ic",
  "470": " can",
  "471": " J",
  "472": "lp",
  "473": "ful",
  "474": " Ben",
  "475": "ood",
  "476": "?\"",
  "477": "hing",
  "478": " friends",
  "479": " nam",
  "480": "ight",
  "481": " all",
  "482": " help",
  "483": " kn",
  "484": "um",
  "485": "one",
  "486": "ark",
  "487": " back",
  "488": " say",
  "489": "You",
  "490": " fun",
  "491": " cl",
  "492": " Tom",
  "493": "are",
  "494": " no",
  "495": " le",
  "496": "op",
  "497": " smiled",
  "498": " sc",
  "499": " named",
  "500": " al",
  "501": "oug",
  "502": " loved",
  "503": "side",
  "504": "elt",
  "505": " One",
  "506": " man",
  "507": " asked",
  "508": "ick",
  "509": " toy",
  "510": " like",
  "511": " fe",
  "512": " felt",
  "513": " looked",
  "514": " some",
  "515": " around",
  "516": " see",
  "517": " me",
  "518": "ame",
  "519": "omet",
  "520": " W",
  "521": " ro",
  "522": " br",
  "523": "ure",
  "524": " Timmy",
  "525": " bir",
  "526": "get",
  "527": "ice",
  "528": " boy",
  "529": " would",
  "530": " start",
  "531": "ong",
  "532": "�",
  "533": "ss",
  "534": " bird",
  "535": " somet",
  "536": " fa",
  "537": "dd",
  "538": "ings",
  "539": " ag",
  "540": " wor",
  "541": " what",
  "542": "ade",
  "543": " make",
  "544": "king",
  "545": ",\"",
  "546": "ie",
  "547": " But",
  "548": "own",
  "549": " tre",
  "550": " ran",
  "551": "gether",
  "552": " You",
  "553": " away",
  "554": "ag",
  "555": "ared",
  "556": " says",
  "557": " started",
  "558": "oud",
  "559": "if",
  "560": " made",
  "561": " car",
  "562": " something",
  "563": " together",
  "564": "ited",
  "565": "ther",
  "566": " park",
  "567": " co",
  "568": " sad",
  "569": " other",
  "570": " new",
  "571": " exc",
  "572": " put",
  "573": " from",
  "574": " pr",
  "575": "ell",
  "576": " L",
  "577": " la",
  "578": " hug",
  "579": "ble",
  "580": " mu",
  "581": "ook",
  "582": "ach",
  "583": " again",
  "584": " home",
  "585": " when",
  "586": " good",
  "587": "hat",
  "588": "ep",
  "589": " who",
  "590": "est",
  "591": "ried",
  "592": " found",
  "593": " fl",
  "594": " then",
  "595": " ch",
  "596": " dec",
  "597": "pped",
  "598": " wal",
  "599": "as",
  "600": " get",
  "601": "qu",
  "602": " playing",
  "603": "ought",
  "604": "pl",
  "605": " E",
  "606": "ally",
  "607": " sw",
  "608": "ous",
  "609": "nn",
  "610": " things",
  "611": " excited",
  "612": " liked",
  "613": " got",
  "614": "uck",
  "615": "ro",
  "616": "ided",
  "617": " decided",
  "618": " bl",
  "619": "ave",
  "620": " came",
  "621": " every",
  "622": "ara",
  "623": " D",
  "624": " your",
  "625": " Mom",
  "626": "ax",
  "627": " v",
  "628": " scared",
  "629": "ust",
  "630": " one",
  "631": " dog",
  "632": " down",
  "633": "ouse",
  "634": "ny",
  "635": " find",
  "636": " care",
  "637": " bec",
  "638": "ist",
  "639": " than",
  "640": " feel",
  "641": "ap",
  "642": "ue",
  "643": "udd",
  "644": "nna",
  "645": " dad",
  "646": " ab",
  "647": "They",
  "648": " my",
  "649": " look",
  "650": " ke",
  "651": "our",
  "652": " will",
  "653": "arn",
  "654": " gr",
  "655": "us",
  "656": "nder",
  "657": " gra",
  "658": "ways",
  "659": "ess",
  "660": " didn",
  "661": " po",
  "662": "fe",
  "663": " always",
  "664": " took",
  "665": " about",
  "666": "ant",
  "667": "bb",
  "668": " lot",
  "669": " mommy",
  "670": " toys",
  "671": " kne",
  "672": "ers",
  "673": "ise",
  "674": "ite",
  "675": " outside",
  "676": " tree",
  "677": " thought",
  "678": " ball",
  "679": " F",
  "680": " more",
  "681": "eci",
  "682": " Sam",
  "683": "ened",
  "684": "ched",
  "685": " ta",
  "686": " old",
  "687": " ho",
  "688": " learn",
  "689": "ret",
  "690": " int",
  "691": "ged",
  "692": " know",
  "693": " laug",
  "694": " take",
  "695": "ecial",
  "696": " special",
  "697": " sor",
  "698": " cat",
  "699": "udden",
  "700": " knew",
  "701": " Max",
  "702": "ive",
  "703": "ia",
  "704": " pe",
  "705": " any",
  "706": "uddenly",
  "707": " tr",
  "708": "fter",
  "709": " how",
  "710": "ma",
  "711": " show",
  "712": "ink",
  "713": " sorry",
  "714": " tw",
  "715": "But",
  "716": " much",
  "717": "au",
  "718": "ish",
  "719": " run",
  "720": "and",
  "721": " hand",
  "722": " sl",
  "723": "ven",
  "724": " house",
  "725": " or",
  "726": " op",
  "727": " sk",
  "728": " mo",
  "729": " clo",
  "730": " sun",
  "731": " into",
  "732": " tried",
  "733": " inside",
  "734": "ate",
  "735": " told",
  "736": " water",
  "737": " this",
  "738": " en",
  "739": "ank",
  "740": " if",
  "741": " proud",
  "742": "ump",
  "743": " qu",
  "744": " over",
  "745": " couldn",
  "746": "Tom",
  "747": "dy",
  "748": " gave",
  "749": " heard",
  "750": " Sara",
  "751": " never",
  "752": "by",
  "753": " each",
  "754": "ace",
  "755": " room",
  "756": "ty",
  "757": " expl",
  "758": " Every",
  "759": " eat",
  "760": " We",
  "761": "other",
  "762": "ause",
  "763": " pick",
  "764": "ion",
  "765": " pret",
  "766": " Anna",
  "767": "Mom",
  "768": " played",
  "769": "ge",
  "770": "etter",
  "771": " just",
  "772": "ak",
  "773": " hugged",
  "774": " gre",
  "775": "here",
  "776": " off",
  "777": " com",
  "778": " wat",
  "779": "oth",
  "780": " box",
  "781": " nice",
  "782": "'m",
  "783": " str",
  "784": " because",
  "785": " need",
  "786": "ile",
  "787": " many",
  "788": " fo",
  "789": "uc",
  "790": " jo",
  "791": " bear",
  "792": " small",
  "793": "iz",
  "794": " bu",
  "795": "ving",
  "796": " long",
  "797": "ine",
  "798": "gry",
  "799": "imal",
  "800": "ort",
  "801": " animal",
  "802": " sn",
  "803": "ough",
  "804": " try",
  "805": " unt",
  "806": "ild",
  "807": "sel",
  "808": "urt",
  "809": " until",
  "810": " Jack",
  "811": "sed",
  "812": " kind",
  "813": " learned",
  "814": " im",
  "815": " love",
  "816": " better",
  "817": "ft",
  "818": " flow",
  "819": " call",
  "820": " don",
  "821": " Jo",
  "822": "He",
  "823": " end",
  "824": " ad",
  "825": "ull",
  "826": " best",
  "827": "vent",
  "828": "Yes",
  "829": "ars",
  "830": "urp",
  "831": "ady",
  "832": "em",
  "833": "ream",
  "834": "aut",
  "835": "urn",
  "836": " Mia",
  "837": " cle",
  "838": " And",
  "839": "ves",
  "840": "”",
  "841": "“",
  "842": "arden",
  "843": " C",
  "844": " garden",
  "845": " fast",
  "846": " careful",
  "847": "ber",
  "848": " beaut",
  "849": "lly",
  "850": "Th",
  "851": " even",
  "852": "pt",
  "853": " bra",
  "854": "ies",
  "855": " thanked",
  "856": " fi",
  "857": " So",
  "858": " che",
  "859": " laughed",
  "860": " sky",
  "861": " by",
  "862": "It",
  "863": " Her",
  "864": " jump",
  "865": " gl",
  "866": "ase",
  "867": " te",
  "868": " loud",
  "869": "self",
  "870": "iny",
  "871": " way",
  "872": "wn",
  "873": " beauti",
  "874": " come",
  "875": "lew",
  "876": " list",
  "877": " wo",
  "878": " beautiful",
  "879": " hard",
  "880": " lots",
  "881": " ra",
  "882": " still",
  "883": " fam",
  "884": " animals",
  "885": " hurt",
  "886": " under",
  "887": " Then",
  "888": "ect",
  "889": " stay",
  "890": "ning",
  "891": " let",
  "892": "ct",
  "893": " both",
  "894": " cu",
  "895": " His",
  "896": "hes",
  "897": "be",
  "898": " safe",
  "899": " From",
  "900": "ool",
  "901": "ree",
  "902": " col",
  "903": " two",
  "904": " bad",
  "905": " “",
  "906": " book",
  "907": " imp",
  "908": "ople",
  "909": " rem",
  "910": "ane",
  "911": " lived",
  "912": "kay",
  "913": "ock",
  "914": "ucy",
  "915": " walked",
  "916": "Tim",
  "917": "ast",
  "918": "urpr",
  "919": " brave",
  "920": " should",
  "921": " its",
  "922": "ob",
  "923": "ished",
  "924": " angry",
  "925": " surpr",
  "926": " family",
  "927": "ress",
  "928": "igh",
  "929": "When",
  "930": " people",
  "931": " flew",
  "932": " called",
  "933": "No",
  "934": " red",
  "935": " stor",
  "936": "ip",
  "937": " soon",
  "938": " fin",
  "939": "hn",
  "940": "Let",
  "941": "led",
  "942": " kept",
  "943": " fore",
  "944": "fore",
  "945": " dan",
  "946": " share",
  "947": " fly",
  "948": "xt",
  "949": "ised",
  "950": "dded",
  "951": " pic",
  "952": " door",
  "953": " going",
  "954": " P",
  "955": " When",
  "956": " pretty",
  "957": " keep",
  "958": " now",
  "959": " rock",
  "960": " clean",
  "961": " dra",
  "962": "ary",
  "963": " advent",
  "964": "ummy",
  "965": " noise",
  "966": " opened",
  "967": " shiny",
  "968": "age",
  "969": " explore",
  "970": " wind",
  "971": " doll",
  "972": " cry",
  "973": " con",
  "974": " ide",
  "975": " before",
  "976": "ied",
  "977": "Ben",
  "978": "illy",
  "979": " real",
  "980": " sto",
  "981": "so",
  "982": "What",
  "983": " ground",
  "984": " also",
  "985": "les",
  "986": " turn",
  "987": "’",
  "988": " ey",
  "989": "That",
  "990": " far",
  "991": " idea",
  "992": " fr",
  "993": "oon",
  "994": " nodded",
  "995": " color",
  "996": " war",
  "997": "oy",
  "998": " feeling",
  "999": " un",
  "1000": " picked",
  "1001": "imb",
  "1002": "th",
  "1003": " Lucy",
  "1004": " next",
  "1005": " walking",
  "1006": "thing",
  "1007": "ture",
  "1008": " Dad",
  "1009": " climb",
  "1010": " has",
  "1011": "uch",
  "1012": " ma",
  "1013": " thr",
  "1014": " while",
  "1015": "eet",
  "1016": " bed",
  "1017": " adventure",
  "1018": " smile",
  "1019": "kes",
  "1020": "aybe",
  "1021": "Thank",
  "1022": "iced",
  "1023": "ger",
  "1024": "ious",
  "1025": " G",
  "1026": " being",
  "1027": " dif",
  "1028": " wr",
  "1029": " clos",
  "1030": " food",
  "1031": "joy",
  "1032": "ted",
  "1033": " give",
  "1034": " picture",
  "1035": " think",
  "1036": " Sp",
  "1037": " looking",
  "1038": " del",
  "1039": "ff",
  "1040": "ac",
  "1041": " truck",
  "1042": " wait",
  "1043": " eyes",
  "1044": "ught",
  "1045": " tow",
  "1046": "ting",
  "1047": " repl",
  "1048": " bro",
  "1049": " stopped",
  "1050": " listen",
  "1051": " after",
  "1052": " bre",
  "1053": " own",
  "1054": " vo",
  "1055": " walk",
  "1056": "ember",
  "1057": " Suddenly",
  "1058": " wonder",
  "1059": " great",
  "1060": " hands",
  "1061": "Suddenly",
  "1062": " shout",
  "1063": " head",
  "1064": " enjoy",
  "1065": " import",
  "1066": " flowers",
  "1067": " ever",
  "1068": " noticed",
  "1069": " blue",
  "1070": " forest",
  "1071": "bbit",
  "1072": "She",
  "1073": "ized",
  "1074": " app",
  "1075": "irst",
  "1076": " near",
  "1077": " quick",
  "1078": " dis",
  "1079": " de",
  "1080": "able",
  "1081": " important",
  "1082": " remember",
  "1083": " fish",
  "1084": "llow",
  "1085": " sound",
  "1086": " slide",
  "1087": " us",
  "1088": "maz",
  "1089": " replied",
  "1090": " amaz",
  "1091": " ac",
  "1092": "lease",
  "1093": " work",
  "1094": " watch",
  "1095": " rain",
  "1096": " showed",
  "1097": " rabbit",
  "1098": " okay",
  "1099": "gan",
  "1100": " tal",
  "1101": "bye",
  "1102": "fere",
  "1103": "bbed",
  "1104": " ask",
  "1105": " differe",
  "1106": " mean",
  "1107": " right",
  "1108": " ye",
  "1109": "day",
  "1110": " watched",
  "1111": " bright",
  "1112": " follow",
  "1113": "We",
  "1114": " Spot",
  "1115": "So",
  "1116": " everyone",
  "1117": " strong",
  "1118": " squ",
  "1119": " stick",
  "1120": " use",
  "1121": " been",
  "1122": " mor",
  "1123": " voice",
  "1124": " tra",
  "1125": "ered",
  "1126": " quickly",
  "1127": "ath",
  "1128": " our",
  "1129": " where",
  "1130": " yell",
  "1131": " N",
  "1132": " Mommy",
  "1133": "Anna",
  "1134": " different",
  "1135": " Bob",
  "1136": " child",
  "1137": " curi",
  "1138": " boat",
  "1139": "ng",
  "1140": " sure",
  "1141": " Sue",
  "1142": " became",
  "1143": " goodbye",
  "1144": " face",
  "1145": " place",
  "1146": "ange",
  "1147": " hop",
  "1148": " high",
  "1149": " am",
  "1150": "Look",
  "1151": "aught",
  "1152": " R",
  "1153": " closer",
  "1154": " store",
  "1155": " warm",
  "1156": " does",
  "1157": " cr",
  "1158": " dress",
  "1159": "Sara",
  "1160": "unny",
  "1161": " curious",
  "1162": " mag",
  "1163": "ila",
  "1164": " cook",
  "1165": "Jo",
  "1166": " bel",
  "1167": " forg",
  "1168": " tell",
  "1169": " fav",
  "1170": "ndma",
  "1171": "ass",
  "1172": "ount",
  "1173": "co",
  "1174": " three",
  "1175": "leep",
  "1176": " night",
  "1177": " open",
  "1178": " cake",
  "1179": "more",
  "1180": " here",
  "1181": " anymore",
  "1182": " block",
  "1183": " first",
  "1184": "itc",
  "1185": " bus",
  "1186": " pull",
  "1187": "iss",
  "1188": "ached",
  "1189": "Her",
  "1190": "ired",
  "1191": " butter",
  "1192": " z",
  "1193": "imes",
  "1194": " Th",
  "1195": "orn",
  "1196": " sweet",
  "1197": " pain",
  "1198": " kid",
  "1199": " grabbed",
  "1200": "Can",
  "1201": " pu",
  "1202": "isy",
  "1203": " only",
  "1204": " mon",
  "1205": " lea",
  "1206": " fell",
  "1207": " ba",
  "1208": " ru",
  "1209": " cont",
  "1210": " birds",
  "1211": " jumped",
  "1212": " glad",
  "1213": " bit",
  "1214": " sand",
  "1215": "itchen",
  "1216": " kitchen",
  "1217": " helped",
  "1218": " sees",
  "1219": " fire",
  "1220": " per",
  "1221": " flo",
  "1222": " stop",
  "1223": " Sarah",
  "1224": " happened",
  "1225": " sing",
  "1226": " grass",
  "1227": " bunny",
  "1228": " shouted",
  "1229": " story",
  "1230": " Let",
  "1231": " tri",
  "1232": "nts",
  "1233": " dr",
  "1234": "air",
  "1235": "After",
  "1236": " Jane",
  "1237": "ppy",
  "1238": " reached",
  "1239": " beh",
  "1240": " realized",
  "1241": " yummy",
  "1242": " brother",
  "1243": " Do",
  "1244": " lady",
  "1245": " mum",
  "1246": " having",
  "1247": " prin",
  "1248": "ins",
  "1249": " favor",
  "1250": " As",
  "1251": "'re",
  "1252": " mess",
  "1253": " favorite",
  "1254": " draw",
  "1255": " cre",
  "1256": " rest",
  "1257": " through",
  "1258": " game",
  "1259": " hat",
  "1260": " ate",
  "1261": " less",
  "1262": " underst",
  "1263": "akes",
  "1264": " Everyone",
  "1265": " soft",
  "1266": " pare",
  "1267": "zy",
  "1268": " thing",
  "1269": " really",
  "1270": "ather",
  "1271": " ready",
  "1272": "Mommy",
  "1273": " began",
  "1274": "where",
  "1275": " pretend",
  "1276": " Can",
  "1277": " world",
  "1278": " Joe",
  "1279": " That",
  "1280": " looks",
  "1281": "ken",
  "1282": " himself",
  "1283": " magic",
  "1284": "fully",
  "1285": " pap",
  "1286": " done",
  "1287": " butterf",
  "1288": " making",
  "1289": " cut",
  "1290": " coming",
  "1291": " duck",
  "1292": "ater",
  "1293": " pond",
  "1294": " kids",
  "1295": " waved",
  "1296": " why",
  "1297": " prom",
  "1298": " tired",
  "1299": " fro",
  "1300": " fix",
  "1301": "olly",
  "1302": "ster",
  "1303": " worry",
  "1304": " mouse",
  "1305": " part",
  "1306": " cars",
  "1307": " ste",
  "1308": " delic",
  "1309": " name",
  "1310": " flower",
  "1311": "ign",
  "1312": " fill",
  "1313": "Wow",
  "1314": "aisy",
  "1315": " touch",
  "1316": "eddy",
  "1317": " funny",
  "1318": " catch",
  "1319": "bo",
  "1320": " used",
  "1321": "sh",
  "1322": " seen",
  "1323": " hair",
  "1324": " John",
  "1325": " tast",
  "1326": "ient",
  "1327": " top",
  "1328": " parents",
  "1329": "rel",
  "1330": " another",
  "1331": " hold",
  "1332": " hopped",
  "1333": " cried",
  "1334": "iver",
  "1335": "uff",
  "1336": "oney",
  "1337": "mer",
  "1338": " doing",
  "1339": " cool",
  "1340": " blocks",
  "1341": "hy",
  "1342": "\".",
  "1343": " pus",
  "1344": " surprise",
  "1345": " light",
  "1346": " green",
  "1347": "As",
  "1348": " thank",
  "1349": " lesson",
  "1350": "Timmy",
  "1351": "ation",
  "1352": " read",
  "1353": " floor",
  "1354": " din",
  "1355": " gi",
  "1356": " wood",
  "1357": " full",
  "1358": "Don",
  "1359": " dri",
  "1360": "ards",
  "1361": " trees",
  "1362": " running",
  "1363": " window",
  "1364": " worked",
  "1365": " years",
  "1366": " cra",
  "1367": " dro",
  "1368": " -",
  "1369": " dark",
  "1370": " behind",
  "1371": " likes",
  "1372": " smell",
  "1373": " spot",
  "1374": " wished",
  "1375": " paper",
  "1376": "ued",
  "1377": " yellow",
  "1378": "andy",
  "1379": " bow",
  "1380": "ul",
  "1381": "ren",
  "1382": " swim",
  "1383": " happily",
  "1384": "John",
  "1385": " bag",
  "1386": " sat",
  "1387": " sho",
  "1388": "Sam",
  "1389": " sleep",
  "1390": "aring",
  "1391": " surprised",
  "1392": "ely",
  "1393": " frog",
  "1394": " butterfly",
  "1395": "ike",
  "1396": " swing",
  "1397": " set",
  "1398": " carefully",
  "1399": " In",
  "1400": " slow",
  "1401": " remembered",
  "1402": " lost",
  "1403": " cold",
  "1404": " held",
  "1405": "ello",
  "1406": "Hello",
  "1407": " hole",
  "1408": " ice",
  "1409": " laugh",
  "1410": "rew",
  "1411": " needed",
  "1412": " buy",
  "1413": " perf",
  "1414": " left",
  "1415": "ons",
  "1416": " move",
  "1417": "reed",
  "1418": "cess",
  "1419": " anything",
  "1420": " dream",
  "1421": " tall",
  "1422": " enjoyed",
  "1423": " wrong",
  "1424": " arri",
  "1425": "uit",
  "1426": " hear",
  "1427": " fair",
  "1428": " air",
  "1429": " followed",
  "1430": "inally",
  "1431": " books",
  "1432": "ross",
  "1433": " el",
  "1434": " children",
  "1435": " hun",
  "1436": " delicious",
  "1437": " table",
  "1438": " finished",
  "1439": " contin",
  "1440": " friendly",
  "1441": " dir",
  "1442": " hot",
  "1443": " snow",
  "1444": " herself",
  "1445": "!”",
  "1446": "ds",
  "1447": "lf",
  "1448": " After",
  "1449": " hill",
  "1450": "ens",
  "1451": " understand",
  "1452": " please",
  "1453": " close",
  "1454": "ined",
  "1455": " hid",
  "1456": " arrived",
  "1457": " cast",
  "1458": " else",
  "1459": " arm",
  "1460": " baby",
  "1461": " wonderful",
  "1462": " might",
  "1463": " gent",
  "1464": " tight",
  "1465": " forgot",
  "1466": "sp",
  "1467": "ield",
  "1468": " bug",
  "1469": " Sally",
  "1470": " colors",
  "1471": " rel",
  "1472": " build",
  "1473": " broken",
  "1474": " Daisy",
  "1475": " able",
  "1476": " gone",
  "1477": "av",
  "1478": "ner",
  "1479": " Now",
  "1480": " Benny",
  "1481": " Lila",
  "1482": " yes",
  "1483": ".”",
  "1484": "atter",
  "1485": " song",
  "1486": "Then",
  "1487": "ich",
  "1488": " wall",
  "1489": " squir",
  "1490": " filled",
  "1491": " agreed",
  "1492": " someone",
  "1493": "Jack",
  "1494": " continued",
  "1495": "room",
  "1496": " creat",
  "1497": "\n ",
  "1498": "asure",
  "1499": "'ll",
  "1500": " count",
  "1501": " wants",
  "1502": " Em",
  "1503": " squirrel",
  "1504": " pink",
  "1505": " leaves",
  "1506": "ask",
  "1507": " enough",
  "1508": " There",
  "1509": "ey",
  "1510": " Tommy",
  "1511": " lion",
  "1512": "From",
  "1513": "ama",
  "1514": "ee",
  "1515": "OK",
  "1516": " morning",
  "1517": " vis",
  "1518": " moment",
  "1519": " finally",
  "1520": " getting",
  "1521": " stayed",
  "1522": " cookies",
  "1523": " break",
  "1524": "app",
  "1525": " poin",
  "1526": "ance",
  "1527": " beach",
  "1528": " K",
  "1529": " few",
  "1530": " Maybe",
  "1531": " scary",
  "1532": " fight",
  "1533": " sometimes",
  "1534": "row",
  "1535": "ash",
  "1536": "ries",
  "1537": "ced",
  "1538": "red",
  "1539": " turned",
  "1540": " hungry",
  "1541": " fall",
  "1542": " dinner",
  "1543": "gon",
  "1544": " mother",
  "1545": " grandma",
  "1546": " ju",
  "1547": " wet",
  "1548": " What",
  "1549": " amazing",
  "1550": "apped",
  "1551": " trying",
  "1552": "His",
  "1553": " cream",
  "1554": " daddy",
  "1555": " perfect",
  "1556": " pi",
  "1557": " makes",
  "1558": " castle",
  "1559": " others",
  "1560": "At",
  "1561": " climbed",
  "1562": "key",
  "1563": "oup",
  "1564": " This",
  "1565": "This",
  "1566": " pictures",
  "1567": "icy",
  "1568": " comp",
  "1569": "amp",
  "1570": " talk",
  "1571": " met",
  "1572": " mus",
  "1573": " white",
  "1574": "oom",
  "1575": " listened",
  "1576": " smiles",
  "1577": "man",
  "1578": " fur",
  "1579": " balloon",
  "1580": " clot",
  "1581": "oring",
  "1582": " Gra",
  "1583": " alone",
  "1584": " clothes",
  "1585": " Billy",
  "1586": " pol",
  "1587": "lc",
  "1588": " tail",
  "1589": " joy",
  "1590": "ated",
  "1591": "rot",
  "1592": "Oh",
  "1593": " puppy",
  "1594": " spl",
  "1595": "ence",
  "1596": " mar",
  "1597": " wasn",
  "1598": " brought",
  "1599": " deep",
  "1600": " everything",
  "1601": " pet",
  "1602": " sear",
  "1603": " strange",
  "1604": "ister",
  "1605": "ctor",
  "1606": " spark",
  "1607": "der",
  "1608": " sit",
  "1609": " woods",
  "1610": " grow",
  "1611": " pulled",
  "1612": "ling",
  "1613": " sail",
  "1614": " To",
  "1615": "ott",
  "1616": " won",
  "1617": " plan",
  "1618": " ride",
  "1619": "eter",
  "1620": " asks",
  "1621": " fox",
  "1622": " pie",
  "1623": " danger",
  "1624": " treat",
  "1625": "uffy",
  "1626": " roll",
  "1627": " visit",
  "1628": " Amy",
  "1629": "os",
  "1630": " leave",
  "1631": "med",
  "1632": " Jen",
  "1633": " pat",
  "1634": "ucky",
  "1635": " music",
  "1636": " amazed",
  "1637": " waited",
  "1638": " teddy",
  "1639": " hide",
  "1640": "me",
  "1641": "ang",
  "1642": "ever",
  "1643": " towards",
  "1644": "Max",
  "1645": "ower",
  "1646": " field",
  "1647": " land",
  "1648": " pre",
  "1649": " flying",
  "1650": "zz",
  "1651": " pen",
  "1652": " silly",
  "1653": " shared",
  "1654": " runs",
  "1655": "ained",
  "1656": " owner",
  "1657": " cloud",
  "1658": "ape",
  "1659": " living",
  "1660": "ugg",
  "1661": " qui",
  "1662": "ames",
  "1663": " job",
  "1664": " promised",
  "1665": "Okay",
  "1666": " belie",
  "1667": "igg",
  "1668": " moral",
  "1669": " gu",
  "1670": " side",
  "1671": "gs",
  "1672": "orm",
  "1673": " lake",
  "1674": "ol",
  "1675": " thinks",
  "1676": " pa",
  "1677": "Maybe",
  "1678": "cket",
  "1679": "ope",
  "1680": " paint",
  "1681": " sec",
  "1682": "thy",
  "1683": " sister",
  "1684": "ually",
  "1685": " party",
  "1686": " quiet",
  "1687": "ises",
  "1688": " must",
  "1689": "cle",
  "1690": " race",
  "1691": " Jim",
  "1692": "avy",
  "1693": " money",
  "1694": " wear",
  "1695": "sw",
  "1696": " worried",
  "1697": "ased",
  "1698": "up",
  "1699": " answ",
  "1700": "unch",
  "1701": " slowly",
  "1702": " pot",
  "1703": "eces",
  "1704": " colorful",
  "1705": " faster",
  "1706": " grate",
  "1707": " ow",
  "1708": " dance",
  "1709": " pieces",
  "1710": " bran",
  "1711": " bott",
  "1712": " welc",
  "1713": " broke",
  "1714": " cup",
  "1715": "ix",
  "1716": " grateful",
  "1717": " gif",
  "1718": " such",
  "1719": " bigger",
  "1720": "ze",
  "1721": " train",
  "1722": "ph",
  "1723": "fort",
  "1724": " snack",
  "1725": " cho",
  "1726": " reach",
  "1727": " blank",
  "1728": " All",
  "1729": " monster",
  "1730": " pro",
  "1731": " plant",
  "1732": " join",
  "1733": " river",
  "1734": " black",
  "1735": "less",
  "1736": " win",
  "1737": " candy",
  "1738": "ire",
  "1739": " blanket",
  "1740": " scream",
  "1741": " treasure",
  "1742": " magical",
  "1743": "ear",
  "1744": " ve",
  "1745": " princess",
  "1746": " ele",
  "1747": " smart",
  "1748": " bike",
  "1749": " dangerous",
  "1750": " sign",
  "1751": " dragon",
  "1752": " across",
  "1753": " monkey",
  "1754": "Sure",
  "1755": " bar",
  "1756": " Daddy",
  "1757": " most",
  "1758": " everywhere",
  "1759": " helping",
  "1760": " nap",
  "1761": " farmer",
  "1762": "outh",
  "1763": " em",
  "1764": " mouth",
  "1765": "Why",
  "1766": "set",
  "1767": " disapp",
  "1768": " words",
  "1769": " je",
  "1770": "ipped",
  "1771": " stre",
  "1772": "ored",
  "1773": "Hi",
  "1774": " tower",
  "1775": "ming",
  "1776": "eared",
  "1777": " threw",
  "1778": " stepped",
  "1779": " heavy",
  "1780": " dolls",
  "1781": " pass",
  "1782": " bite",
  "1783": "de",
  "1784": " bowl",
  "1785": " dirty",
  "1786": " twins",
  "1787": " same",
  "1788": " crying",
  "1789": " bee",
  "1790": " spr",
  "1791": "ere",
  "1792": " doctor",
  "1793": "ident",
  "1794": " Molly",
  "1795": " acc",
  "1796": " believe",
  "1797": " wouldn",
  "1798": " bath",
  "1799": " Fl",
  "1800": " heal",
  "1801": "chool",
  "1802": " hig",
  "1803": "bble",
  "1804": " closed",
  "1805": " carrot",
  "1806": " heart",
  "1807": "Mia",
  "1808": " stuck",
  "1809": "cked",
  "1810": " cour",
  "1811": " fruit",
  "1812": " buck",
  "1813": " min",
  "1814": " att",
  "1815": " teac",
  "1816": " school",
  "1817": " Mr",
  "1818": " brown",
  "1819": " hoped",
  "1820": " Jill",
  "1821": "asket",
  "1822": "iting",
  "1823": " suddenly",
  "1824": " basket",
  "1825": " feels",
  "1826": " mix",
  "1827": " chair",
  "1828": " eating",
  "1829": " town",
  "1830": " course",
  "1831": " cray",
  "1832": " clapped",
  "1833": "?”",
  "1834": " coll",
  "1835": " gentle",
  "1836": " fairy",
  "1837": "pping",
  "1838": " butt",
  "1839": " pack",
  "1840": "ventually",
  "1841": " stand",
  "1842": "ier",
  "1843": " drove",
  "1844": "ors",
  "1845": " pushed",
  "1846": "br",
  "1847": "issed",
  "1848": " welcome",
  "1849": "ts",
  "1850": " swings",
  "1851": " without",
  "1852": " higher",
  "1853": " today",
  "1854": " neigh",
  "1855": " pocket",
  "1856": "orrow",
  "1857": " hit",
  "1858": " teacher",
  "1859": " neighb",
  "1860": " pers",
  "1861": "ord",
  "1862": " smo",
  "1863": " games",
  "1864": "ourn",
  "1865": " piece",
  "1866": "ract",
  "1867": " cheered",
  "1868": " wings",
  "1869": " forget",
  "1870": " ben",
  "1871": " explained",
  "1872": " journ",
  "1873": " yard",
  "1874": " longer",
  "1875": " free",
  "1876": "Finally",
  "1877": "ible",
  "1878": " corn",
  "1879": " accident",
  "1880": "ho",
  "1881": "ead",
  "1882": " dry",
  "1883": " along",
  "1884": "umb",
  "1885": " Mary",
  "1886": "ment",
  "1887": "cy",
  "1888": " noises",
  "1889": "itting",
  "1890": " neck",
  "1891": " sang",
  "1892": " inst",
  "1893": " late",
  "1894": " happen",
  "1895": " throw",
  "1896": " hugs",
  "1897": "Lila",
  "1898": " young",
  "1899": " turns",
  "1900": " stories",
  "1901": "vel",
  "1902": " shoes",
  "1903": "phant",
  "1904": " lon",
  "1905": " miss",
  "1906": " adventures",
  "1907": " singing",
  "1908": " trou",
  "1909": " well",
  "1910": " sea",
  "1911": " lunch",
  "1912": " apple",
  "1913": " upset",
  "1914": " lonely",
  "1915": " key",
  "1916": "ches",
  "1917": " belong",
  "1918": "bby",
  "1919": "oun",
  "1920": " dist",
  "1921": " secret",
  "1922": " street",
  "1923": " plac",
  "1924": " elephant",
  "1925": " tom",
  "1926": " wish",
  "1927": " fence",
  "1928": " mine",
  "1929": "ountain",
  "1930": " mat",
  "1931": "ek",
  "1932": " shap",
  "1933": " shook",
  "1934": " exploring",
  "1935": " moved",
  "1936": " purp",
  "1937": " year",
  "1938": "aughty",
  "1939": " nearby",
  "1940": " naughty",
  "1941": " star",
  "1942": " soup",
  "1943": " shop",
  "1944": " wise",
  "1945": " Grandma",
  "1946": " stars",
  "1947": " owl",
  "1948": " bring",
  "1949": "fused",
  "1950": " jar",
  "1951": "bow",
  "1952": "Do",
  "1953": "ocked",
  "1954": " inv",
  "1955": " exp",
  "1956": " whe",
  "1957": "yard",
  "1958": " caught",
  "1959": " su",
  "1960": "ward",
  "1961": " backyard",
  "1962": " seemed",
  "1963": "ail",
  "1964": " es",
  "1965": " relie",
  "1966": " dropped",
  "1967": " ph",
  "1968": " rocks",
  "1969": " Emma",
  "1970": "aughter",
  "1971": "llo",
  "1972": " 3",
  "1973": "ush",
  "1974": " drink",
  "1975": " bucket",
  "1976": " des",
  "1977": " ca",
  "1978": "adow",
  "1979": "ces",
  "1980": " purple",
  "1981": " swam",
  "1982": " farm",
  "1983": " resp",
  "1984": " taking",
  "1985": " mail",
  "1986": " orange",
  "1987": " though",
  "1988": "ions",
  "1989": "And",
  "1990": " shapes",
  "1991": " past",
  "1992": "col",
  "1993": " cow",
  "1994": " stu",
  "1995": " Thank",
  "1996": " woke",
  "1997": " bench",
  "1998": " sounds",
  "1999": " af",
  "2000": "ung",
  "2001": "ity",
  "2002": "sy",
  "2003": " wondered",
  "2004": " busy",
  "2005": " fit",
  "2006": " tiny",
  "2007": " ob",
  "2008": " nose",
  "2009": " sitting",
  "2010": " nest",
  "2011": " rainbow",
  "2012": "ese",
  "2013": " daughter",
  "2014": " takes",
  "2015": " mark",
  "2016": " mad",
  "2017": "fish",
  "2018": " cou",
  "2019": " kite",
  "2020": "to",
  "2021": " O",
  "2022": "read",
  "2023": " holding",
  "2024": "weet",
  "2025": " nothing",
  "2026": " comes",
  "2027": " juice",
  "2028": " arms",
  "2029": "thday",
  "2030": " pig",
  "2031": " coat",
  "2032": "og",
  "2033": " Fluffy",
  "2034": "ining",
  "2035": " cir",
  "2036": " Inside",
  "2037": " branch",
  "2038": "raid",
  "2039": " relieved",
  "2040": "pper",
  "2041": " afraid",
  "2042": "cing",
  "2043": "ose",
  "2044": "idge",
  "2045": " driver",
  "2046": " mil",
  "2047": " forever",
  "2048": "vered",
  "2049": " spoon",
  "2050": " cute",
  "2051": " carry",
  "2052": " gift",
  "2053": " sick",
  "2054": " boun",
  "2055": " lift",
  "2056": "sting",
  "2057": " peace",
  "2058": "Of",
  "2059": " promise",
  "2060": "ours",
  "2061": " Finally",
  "2062": " huge",
  "2063": " act",
  "2064": " tou",
  "2065": " touched",
  "2066": " patient",
  "2067": "unt",
  "2068": " king",
  "2069": " round",
  "2070": "cer",
  "2071": "sc",
  "2072": " hello",
  "2073": " Come",
  "2074": " birthday",
  "2075": " fing",
  "2076": " letter",
  "2077": " grab",
  "2078": " intere",
  "2079": " exciting",
  "2080": "let",
  "2081": " sunny",
  "2082": " cheese",
  "2083": "eth",
  "2084": " onto",
  "2085": " laughing",
  "2086": " days",
  "2087": "board",
  "2088": " journey",
  "2089": " gigg",
  "2090": " band",
  "2091": " creature",
  "2092": " disco",
  "2093": " Mama",
  "2094": "ittens",
  "2095": " bread",
  "2096": "Hey",
  "2097": "arp",
  "2098": " ret",
  "2099": " imag",
  "2100": "ped",
  "2101": "shine",
  "2102": " life",
  "2103": " kick",
  "2104": " bush",
  "2105": "gged",
  "2106": " hope",
  "2107": " power",
  "2108": " craw",
  "2109": " shell",
  "2110": " cozy",
  "2111": " swimming",
  "2112": "Tommy",
  "2113": " inc",
  "2114": " bottle",
  "2115": " mist",
  "2116": " sharp",
  "2117": " wra",
  "2118": "gg",
  "2119": " suc",
  "2120": " comfort",
  "2121": " instead",
  "2122": " whist",
  "2123": " milk",
  "2124": " watching",
  "2125": " return",
  "2126": " ear",
  "2127": "ness",
  "2128": " spin",
  "2129": "alm",
  "2130": " accidentally",
  "2131": " eas",
  "2132": " sunshine",
  "2133": "ten",
  "2134": " Soon",
  "2135": " cave",
  "2136": "pa",
  "2137": " Sammy",
  "2138": " spo",
  "2139": " puts",
  "2140": " lucky",
  "2141": " talked",
  "2142": " honey",
  "2143": " pointed",
  "2144": " pudd",
  "2145": " gives",
  "2146": " collect",
  "2147": " gather",
  "2148": "itch",
  "2149": " road",
  "2150": " ent",
  "2151": "Later",
  "2152": " smiling",
  "2153": " bought",
  "2154": " anyone",
  "2155": " hor",
  "2156": " searched",
  "2157": " later",
  "2158": " ce",
  "2159": " fan",
  "2160": " sandw",
  "2161": "ball",
  "2162": "round",
  "2163": "itten",
  "2164": " apples",
  "2165": "els",
  "2166": "blem",
  "2167": "irt",
  "2168": " problem",
  "2169": " meet",
  "2170": "ize",
  "2171": "Bob",
  "2172": " mach",
  "2173": "Lucy",
  "2174": " wom",
  "2175": " loves",
  "2176": " interesting",
  "2177": "Good",
  "2178": " woman",
  "2179": " plane",
  "2180": " Tweet",
  "2181": " kiss",
  "2182": " pres",
  "2183": " healthy",
  "2184": "eb",
  "2185": " pile",
  "2186": " tasty",
  "2187": " ducks",
  "2188": " Jimmy",
  "2189": "ub",
  "2190": " vill",
  "2191": "ove",
  "2192": " wide",
  "2193": "ont",
  "2194": "amed",
  "2195": "aur",
  "2196": " adm",
  "2197": " eag",
  "2198": " spid",
  "2199": " clever",
  "2200": " crayons",
  "2201": " prot",
  "2202": " matter",
  "2203": " trouble",
  "2204": "erly",
  "2205": "ndpa",
  "2206": " zoom",
  "2207": " clouds",
  "2208": "owed",
  "2209": " With",
  "2210": " storm",
  "2211": " person",
  "2212": " path",
  "2213": "cks",
  "2214": " pill",
  "2215": " feather",
  "2216": " rope",
  "2217": " pop",
  "2218": " shining",
  "2219": " protect",
  "2220": " smelled",
  "2221": " front",
  "2222": " hon",
  "2223": " button",
  "2224": " pract",
  "2225": " spotted",
  "2226": " screamed",
  "2227": " zoo",
  "2228": " minut",
  "2229": " Ell",
  "2230": " present",
  "2231": "Come",
  "2232": " ap",
  "2233": " mud",
  "2234": " val",
  "2235": " respect",
  "2236": " saf",
  "2237": " danced",
  "2238": " cheer",
  "2239": " organ",
  "2240": " par",
  "2241": " quest",
  "2242": "Jim",
  "2243": "ond",
  "2244": " appeared",
  "2245": " which",
  "2246": " puzz",
  "2247": " seat",
  "2248": "Molly",
  "2249": " teach",
  "2250": " myster",
  "2251": " snowman",
  "2252": "Just",
  "2253": "isa",
  "2254": " snake",
  "2255": " thin",
  "2256": "ert",
  "2257": "ale",
  "2258": " wild",
  "2259": " asleep",
  "2260": " lovely",
  "2261": " sur",
  "2262": " answer",
  "2263": "epend",
  "2264": " wearing",
  "2265": " gently",
  "2266": " neighbor",
  "2267": "oose",
  "2268": "Mum",
  "2269": " bark",
  "2270": " horse",
  "2271": " giant",
  "2272": " places",
  "2273": " goes",
  "2274": " whole",
  "2275": "ometimes",
  "2276": " search",
  "2277": " splas",
  "2278": "Every",
  "2279": "St",
  "2280": " corner",
  "2281": " impress",
  "2282": "ular",
  "2283": " dirt",
  "2284": " med",
  "2285": " shr",
  "2286": "een",
  "2287": " tries",
  "2288": " trip",
  "2289": " confused",
  "2290": " Emily",
  "2291": " live",
  "2292": " mind",
  "2293": " di",
  "2294": "ato",
  "2295": "la",
  "2296": " rolled",
  "2297": " card",
  "2298": " slid",
  "2299": " tasted",
  "2300": "nic",
  "2301": "In",
  "2302": "cean",
  "2303": " ash",
  "2304": " ocean",
  "2305": " supp",
  "2306": " forgive",
  "2307": " picnic",
  "2308": " rude",
  "2309": " machine",
  "2310": "ex",
  "2311": " spent",
  "2312": " Go",
  "2313": " drive",
  "2314": " teeth",
  "2315": " ser",
  "2316": "ssed",
  "2317": "itty",
  "2318": " phone",
  "2319": " How",
  "2320": " oven",
  "2321": " pan",
  "2322": " pour",
  "2323": " last",
  "2324": " calm",
  "2325": " pretended",
  "2326": " delight",
  "2327": " cookie",
  "2328": " furry",
  "2329": " spider",
  "2330": "izz",
  "2331": " feet",
  "2332": " faces",
  "2333": "unk",
  "2334": " lay",
  "2335": " worm",
  "2336": " ring",
  "2337": " Ch",
  "2338": " rec",
  "2339": "umber",
  "2340": " helpful",
  "2341": " lad",
  "2342": " Mittens",
  "2343": " eventually",
  "2344": " wip",
  "2345": " chick",
  "2346": " wave",
  "2347": " mountain",
  "2348": " sal",
  "2349": " ban",
  "2350": " emb",
  "2351": " talking",
  "2352": "ones",
  "2353": " rob",
  "2354": " fold",
  "2355": " shy",
  "2356": " cart",
  "2357": " tomorrow",
  "2358": " sel",
  "2359": " chocol",
  "2360": " tid",
  "2361": " Jenny",
  "2362": " spread",
  "2363": " village",
  "2364": "arge",
  "2365": "ife",
  "2366": " remind",
  "2367": " ign",
  "2368": " bubble",
  "2369": " tun",
  "2370": " coin",
  "2371": " foot",
  "2372": " couch",
  "2373": " write",
  "2374": " ladder",
  "2375": " building",
  "2376": " push",
  "2377": " fighting",
  "2378": " smooth",
  "2379": " treats",
  "2380": "hile",
  "2381": " wore",
  "2382": " chased",
  "2383": " tool",
  "2384": "ighed",
  "2385": " blew",
  "2386": " stret",
  "2387": "lex",
  "2388": "My",
  "2389": "Soon",
  "2390": "arra",
  "2391": " bugs",
  "2392": " embarra",
  "2393": " hiding",
  "2394": " pool",
  "2395": " cross",
  "2396": " waiting",
  "2397": "oph",
  "2398": " knee",
  "2399": " robot",
  "2400": " neckl",
  "2401": " step",
  "2402": " puddle",
  "2403": "mo",
  "2404": " finish",
  "2405": " shelf",
  "2406": " bell",
  "2407": " coo",
  "2408": "not",
  "2409": "als",
  "2410": " songs",
  "2411": " stir",
  "2412": "ator",
  "2413": " whenever",
  "2414": " selfish",
  "2415": " ant",
  "2416": " maybe",
  "2417": " cannot",
  "2418": " string",
  "2419": " stra",
  "2420": " chocolate",
  "2421": "ult",
  "2422": " sol",
  "2423": " taste",
  "2424": " spe",
  "2425": " rep",
  "2426": " hum",
  "2427": " ple",
  "2428": " large",
  "2429": " Jake",
  "2430": " paw",
  "2431": " net",
  "2432": "box",
  "2433": "Mama",
  "2434": " sack",
  "2435": " leaf",
  "2436": " scar",
  "2437": " St",
  "2438": " fixed",
  "2439": "lebr",
  "2440": " barked",
  "2441": " tidy",
  "2442": "umpy",
  "2443": " banan",
  "2444": " wash",
  "2445": " Everywhere",
  "2446": " Sometimes",
  "2447": " spray",
  "2448": " stone",
  "2449": "old",
  "2450": " Just",
  "2451": "hnn",
  "2452": " celebr",
  "2453": " gen",
  "2454": " cloth",
  "2455": "Please",
  "2456": " crab",
  "2457": " Le",
  "2458": "Dad",
  "2459": " peaceful",
  "2460": " colour",
  "2461": "ungle",
  "2462": " Please",
  "2463": "hnny",
  "2464": " hel",
  "2465": "ird",
  "2466": "oin",
  "2467": "lice",
  "2468": " missed",
  "2469": " deter",
  "2470": " jungle",
  "2471": " '",
  "2472": "iger",
  "2473": "arm",
  "2474": "Now",
  "2475": " landed",
  "2476": " determ",
  "2477": " forward",
  "2478": " embarrassed",
  "2479": " necklace",
  "2480": " honest",
  "2481": "Sarah",
  "2482": " jumping",
  "2483": "airs",
  "2484": "elly",
  "2485": " bat",
  "2486": " Their",
  "2487": " decor",
  "2488": "dge",
  "2489": " trust",
  "2490": " hears",
  "2491": " moon",
  "2492": "orry",
  "2493": " sticks",
  "2494": " TV",
  "2495": " shirt",
  "2496": " creative",
  "2497": " sharing",
  "2498": "aking",
  "2499": " tea",
  "2500": "most",
  "2501": " knocked",
  "2502": " carrots",
  "2503": " disappoin",
  "2504": " success",
  "2505": " meadow",
  "2506": "ying",
  "2507": "getable",
  "2508": " whis",
  "2509": " stood",
  "2510": " gener",
  "2511": " vegetable",
  "2512": " bal",
  "2513": " Don",
  "2514": " meant",
  "2515": " legs",
  "2516": " tightly",
  "2517": " breath",
  "2518": " plate",
  "2519": " ashamed",
  "2520": " almost",
  "2521": "ned",
  "2522": " emp",
  "2523": " sour",
  "2524": " gray",
  "2525": "dle",
  "2526": " grew",
  "2527": " tells",
  "2528": " empty",
  "2529": " Some",
  "2530": " pillow",
  "2531": "ground",
  "2532": "ony",
  "2533": " gas",
  "2534": " splash",
  "2535": " On",
  "2536": " whistle",
  "2537": "ian",
  "2538": " understood",
  "2539": "Be",
  "2540": " sheep",
  "2541": " ber",
  "2542": " carried",
  "2543": "den",
  "2544": " Lisa",
  "2545": " yelled",
  "2546": " Why",
  "2547": " lem",
  "2548": "To",
  "2549": " Teddy",
  "2550": "ustr",
  "2551": "arl",
  "2552": " Ann",
  "2553": " nods",
  "2554": "erp",
  "2555": "vous",
  "2556": " save",
  "2557": " police",
  "2558": " disappointed",
  "2559": " snacks",
  "2560": " hours",
  "2561": " nut",
  "2562": "ital",
  "2563": " whisp",
  "2564": " jew",
  "2565": "Where",
  "2566": " these",
  "2567": "hin",
  "2568": "ork",
  "2569": " hosp",
  "2570": "ets",
  "2571": " sparkly",
  "2572": " gold",
  "2573": " hospital",
  "2574": " kitten",
  "2575": " Even",
  "2576": " Mum",
  "2577": " ship",
  "2578": " pay",
  "2579": "ina",
  "2580": "obby",
  "2581": " Together",
  "2582": " bored",
  "2583": "urse",
  "2584": " line",
  "2585": " generous",
  "2586": " frustr",
  "2587": " test",
  "2588": " hidden",
  "2589": " taught",
  "2590": " standing",
  "2591": " rad",
  "2592": " scarf",
  "2593": "iff",
  "2594": " chew",
  "2595": " returned",
  "2596": " minutes",
  "2597": " pizz",
  "2598": " knowing",
  "2599": " group",
  "2600": " hur",
  "2601": " plants",
  "2602": " easy",
  "2603": " blow",
  "2604": " bedroom",
  "2605": " polite",
  "2606": " mysterious",
  "2607": " waves",
  "2608": " glass",
  "2609": " sighed",
  "2610": " shore",
  "2611": " pri",
  "2612": " seed",
  "2613": " wolf",
  "2614": "usie",
  "2615": " seek",
  "2616": " Peter",
  "2617": " determined",
  "2618": "kin",
  "2619": "Stop",
  "2620": " puzzle",
  "2621": " powerful",
  "2622": " thankful",
  "2623": "fl",
  "2624": " class",
  "2625": "Jane",
  "2626": " ner",
  "2627": " Be",
  "2628": " pir",
  "2629": " sandwich",
  "2630": " fig",
  "2631": " sleepy",
  "2632": " prince",
  "2633": " passed",
  "2634": " drew",
  "2635": "'d",
  "2636": " finger",
  "2637": " jelly",
  "2638": " pizza",
  "2639": " nervous",
  "2640": " frustrated",
  "2641": " spicy",
  "2642": " gun",
  "2643": " spoil",
  "2644": " match",
  "2645": " fancy",
  "2646": " messy",
  "2647": "osaur",
  "2648": "work",
  "2649": " gate",
  "2650": " bridge",
  "2651": " lock",
  "2652": " kissed",
  "2653": " tick",
  "2654": "aul",
  "2655": " closet",
  "2656": " fear",
  "2657": " reg",
  "2658": "af",
  "2659": " feed",
  "2660": " mot",
  "2661": " sold",
  "2662": " wis",
  "2663": " gathered",
  "2664": "oop",
  "2665": " excite",
  "2666": " av",
  "2667": "There",
  "2668": " poor",
  "2669": " circ",
  "2670": "ote",
  "2671": " hang",
  "2672": "erpill",
  "2673": " caterpill",
  "2674": " esc",
  "2675": " flag",
  "2676": " pin",
  "2677": " grumpy",
  "2678": " van",
  "2679": "iddle",
  "2680": "ella",
  "2681": " dinosaur",
  "2682": " yourself",
  "2683": "ano",
  "2684": "issors",
  "2685": "uce",
  "2686": " answered",
  "2687": " cries",
  "2688": "Are",
  "2689": " often",
  "2690": "itter",
  "2691": " Z",
  "2692": " twirl",
  "2693": "selves",
  "2694": " chest",
  "2695": "sist",
  "2696": " scissors",
  "2697": " hopping",
  "2698": " tears",
  "2699": "pack",
  "2700": "gly",
  "2701": "mb",
  "2702": "Sorry",
  "2703": " mummy",
  "2704": " Rex",
  "2705": " ugly",
  "2706": "era",
  "2707": " burn",
  "2708": " cand",
  "2709": "ensive",
  "2710": " deer",
  "2711": " drop",
  "2712": "illed",
  "2713": " fil",
  "2714": " excitement",
  "2715": "izzy",
  "2716": " caterpillar",
  "2717": " lit",
  "2718": " working",
  "2719": " middle",
  "2720": " expensive",
  "2721": " scr",
  "2722": " saved",
  "2723": " taken",
  "2724": " Br",
  "2725": " ok",
  "2726": " true",
  "2727": " wagged",
  "2728": " ones",
  "2729": " pleased",
  "2730": " crown",
  "2731": " spend",
  "2732": " boring",
  "2733": " picks",
  "2734": " leg",
  "2735": "que",
  "2736": "oof",
  "2737": "ugar",
  "2738": " vase",
  "2739": " tent",
  "2740": " asking",
  "2741": "body",
  "2742": "ual",
  "2743": "Jimmy",
  "2744": " Bl",
  "2745": " brush",
  "2746": " tie",
  "2747": "ates",
  "2748": " vegetables",
  "2749": "ecially",
  "2750": " giggled",
  "2751": " boss",
  "2752": "Who",
  "2753": "ete",
  "2754": "Their",
  "2755": " mistake",
  "2756": " cage",
  "2757": "ser",
  "2758": " gets",
  "2759": "light",
  "2760": " rocket",
  "2761": " cap",
  "2762": " mir",
  "2763": " Leo",
  "2764": " comfortable",
  "2765": " sugar",
  "2766": " eld",
  "2767": " stuff",
  "2768": " Johnny",
  "2769": " packed",
  "2770": "Sp",
  "2771": " dancing",
  "2772": "pecially",
  "2773": " especially",
  "2774": " wander",
  "2775": " clown",
  "2776": " medic",
  "2777": " number",
  "2778": " press",
  "2779": " sight",
  "2780": " knight",
  "2781": "ushed",
  "2782": "ggs",
  "2783": "ots",
  "2784": " fruits",
  "2785": "iness",
  "2786": " eggs",
  "2787": " lying",
  "2788": " drum",
  "2789": " fake",
  "2790": " dest",
  "2791": "ror",
  "2792": " medicine",
  "2793": " walks",
  "2794": " distance",
  "2795": "aged",
  "2796": " glue",
  "2797": " splashed",
  "2798": " sweetie",
  "2799": " bake",
  "2800": " flut",
  "2801": " bone",
  "2802": " drawing",
  "2803": " moving",
  "2804": " disappeared",
  "2805": "ha",
  "2806": " week",
  "2807": " OK",
  "2808": " lead",
  "2809": " smelly",
  "2810": " clap",
  "2811": " lemon",
  "2812": " become",
  "2813": " change",
  "2814": " pray",
  "2815": " feathers",
  "2816": " moms",
  "2817": " lose",
  "2818": " mov",
  "2819": " licked",
  "2820": " calling",
  "2821": " If",
  "2822": " twist",
  "2823": " dogs",
  "2824": " bathroom",
  "2825": " playground",
  "2826": "ory",
  "2827": "yal",
  "2828": " fis",
  "2829": "Me",
  "2830": " lazy",
  "2831": "enny",
  "2832": " roar",
  "2833": "Sally",
  "2834": " elderly",
  "2835": " weak",
  "2836": " incred",
  "2837": " cri",
  "2838": " gar",
  "2839": "?\".",
  "2840": " body",
  "2841": " horn",
  "2842": " exam",
  "2843": " crack",
  "2844": "Gra",
  "2845": " questions",
  "2846": " add",
  "2847": " wrote",
  "2848": " yog",
  "2849": "Billy",
  "2850": " yours",
  "2851": "Joe",
  "2852": " noisy",
  "2853": " father",
  "2854": " mirror",
  "2855": "uggest",
  "2856": " mic",
  "2857": " nod",
  "2858": " suggest",
  "2859": "elp",
  "2860": "ating",
  "2861": "eez",
  "2862": " fluffy",
  "2863": " skipped",
  "2864": ",”",
  "2865": " ed",
  "2866": " wheel",
  "2867": " eager",
  "2868": " loyal",
  "2869": " lamp",
  "2870": " dish",
  "2871": " ext",
  "2872": " clear",
  "2873": " famous",
  "2874": "land",
  "2875": " dig",
  "2876": " stones",
  "2877": " ruined",
  "2878": " At",
  "2879": "ination",
  "2880": " rich",
  "2881": " rare",
  "2882": " ord",
  "2883": " End",
  "2884": " tape",
  "2885": " sell",
  "2886": " drank",
  "2887": " content",
  "2888": " figure",
  "2889": " queen",
  "2890": " march",
  "2891": " incredible",
  "2892": " glow",
  "2893": " map",
  "2894": " shows",
  "2895": "hip",
  "2896": " rid",
  "2897": "ti",
  "2898": " check",
  "2899": " juicy",
  "2900": " soap",
  "2901": " covered",
  "2902": " balls",
  "2903": " ind",
  "2904": " sailed",
  "2905": "imp",
  "2906": " relax",
  "2907": " aw",
  "2908": " shoot",
  "2909": "Amy",
  "2910": "illi",
  "2911": " team",
  "2912": "ately",
  "2913": " measure",
  "2914": " decide",
  "2915": " realised",
  "2916": "umbled",
  "2917": " discovered",
  "2918": " coins",
  "2919": " needs",
  "2920": " borrow",
  "2921": " swan",
  "2922": " Little",
  "2923": " straw",
  "2924": "fic",
  "2925": " adventur",
  "2926": " Blue",
  "2927": "cept",
  "2928": " No",
  "2929": "Jill",
  "2930": "Help",
  "2931": " cleaned",
  "2932": " branches",
  "2933": " towel",
  "2934": " boys",
  "2935": " extra",
  "2936": " ham",
  "2937": "asing",
  "2938": "Well",
  "2939": " board",
  "2940": " chicken",
  "2941": " barn",
  "2942": " mod",
  "2943": " tiger",
  "2944": " motor",
  "2945": " tag",
  "2946": " adventurous",
  "2947": " joke",
  "2948": " diffic",
  "2949": " offered",
  "2950": " fine",
  "2951": "keep",
  "2952": " balance",
  "2953": " lifted",
  "2954": "ique",
  "2955": " bubbles",
  "2956": " colourful",
  "2957": " frown",
  "2958": " turt",
  "2959": " eye",
  "2960": " thick",
  "2961": "Mummy",
  "2962": " difficult",
  "2963": " bottom",
  "2964": " track",
  "2965": " toug",
  "2966": "alous",
  "2967": " organized",
  "2968": " cover",
  "2969": " happening",
  "2970": " unique",
  "2971": "rag",
  "2972": " jealous",
  "2973": " dolp",
  "2974": " hose",
  "2975": "port",
  "2976": " knife",
  "2977": " weird",
  "2978": " island",
  "2979": " Susie",
  "2980": "cil",
  "2981": " garage",
  "2982": " fright",
  "2983": " managed",
  "2984": "lla",
  "2985": "imed",
  "2986": " hurts",
  "2987": " pencil",
  "2988": " word",
  "2989": "ject",
  "2990": "Sue",
  "2991": " once",
  "2992": " crawled",
  "2993": " cost",
  "2994": " learning",
  "2995": " arg",
  "2996": "Spot",
  "2997": " Mark",
  "2998": " circle",
  "2999": " saying",
  "3000": " kindness",
  "3001": "ured",
  "3002": " berries",
  "3003": "olog",
  "3004": " mighty",
  "3005": " balloons",
  "3006": " tough",
  "3007": " pointing",
  "3008": " chase",
  "3009": " bald",
  "3010": " favour",
  "3011": "ready",
  "3012": " wand",
  "3013": " ter",
  "3014": "lies",
  "3015": "keeper",
  "3016": " shake",
  "3017": " Bobby",
  "3018": "und",
  "3019": "iv",
  "3020": " jewel",
  "3021": " louder",
  "3022": " Brown",
  "3023": "ipper",
  "3024": " added",
  "3025": "ages",
  "3026": " batter",
  "3027": " sil",
  "3028": " hunt",
  "3029": " unus",
  "3030": " guit",
  "3031": " harder",
  "3032": " guess",
  "3033": " apolog",
  "3034": " edge",
  "3035": "head",
  "3036": " already",
  "3037": " four",
  "3038": " ang",
  "3039": " spun",
  "3040": " favourite",
  "3041": " fool",
  "3042": " norm",
  "3043": " whale",
  "3044": "How",
  "3045": " unusual",
  "3046": " libr",
  "3047": " valu",
  "3048": "ipp",
  "3049": "rage",
  "3050": "alk",
  "3051": " enjoying",
  "3052": " Kitty",
  "3053": " dizzy",
  "3054": "aw",
  "3055": " hats",
  "3056": " pump",
  "3057": " belonged",
  "3058": " grace",
  "3059": " wrapped",
  "3060": " cheerful",
  "3061": " smoke",
  "3062": "uggled",
  "3063": " impressed",
  "3064": " strawber",
  "3065": " trucks",
  "3066": " record",
  "3067": " giving",
  "3068": " sword",
  "3069": " market",
  "3070": " grown",
  "3071": " ref",
  "3072": " laughs",
  "3073": " trunk",
  "3074": " normal",
  "3075": "anged",
  "3076": " grand",
  "3077": " hero",
  "3078": " ears",
  "3079": " guitar",
  "3080": " loudly",
  "3081": "ola",
  "3082": "illiant",
  "3083": " turtle",
  "3084": " harm",
  "3085": "Here",
  "3086": " banana",
  "3087": " proudly",
  "3088": " boxes",
  "3089": " scare",
  "3090": "ature",
  "3091": "ilt",
  "3092": " brilliant",
  "3093": "ery",
  "3094": " choose",
  "3095": " brothers",
  "3096": " circles",
  "3097": " terri",
  "3098": " bossy",
  "3099": " dreamed",
  "3100": " against",
  "3101": " escape",
  "3102": "ym",
  "3103": " goat",
  "3104": " invited",
  "3105": " skin",
  "3106": " cab",
  "3107": " helps",
  "3108": "gy",
  "3109": "cient",
  "3110": " compet",
  "3111": " pil",
  "3112": "ipe",
  "3113": " painting",
  "3114": " means",
  "3115": " melt",
  "3116": " frightened",
  "3117": " accept",
  "3118": "fast",
  "3119": " pee",
  "3120": " flash",
  "3121": " safely",
  "3122": " depend",
  "3123": " buttons",
  "3124": " slipped",
  "3125": " design",
  "3126": " stubb",
  "3127": " birdie",
  "3128": " Dan",
  "3129": " jack",
  "3130": " wrap",
  "3131": " valuable",
  "3132": " cabin",
  "3133": " crayon",
  "3134": " Ellie",
  "3135": " wake",
  "3136": " stream",
  "3137": " Fred",
  "3138": " walls",
  "3139": " happiness",
  "3140": "ouses",
  "3141": " breakfast",
  "3142": " log",
  "3143": "erry",
  "3144": " ancient",
  "3145": "edient",
  "3146": " study",
  "3147": " successful",
  "3148": " clay",
  "3149": "emo",
  "3150": "orge",
  "3151": " knows",
  "3152": " foolish",
  "3153": " toast",
  "3154": " falls",
  "3155": "ye",
  "3156": " fridge",
  "3157": " lean",
  "3158": " stubborn",
  "3159": " unl",
  "3160": " nicely",
  "3161": "atch",
  "3162": "apping",
  "3163": " shape",
  "3164": "omed",
  "3165": " fier",
  "3166": " cudd",
  "3167": " Pete",
  "3168": " rough",
  "3169": " dreams",
  "3170": " movie",
  "3171": " space",
  "3172": " houses",
  "3173": " city",
  "3174": " nosy",
  "3175": " bloom",
  "3176": " delicate",
  "3177": " obedient",
  "3178": " fierce",
  "3179": " My",
  "3180": " tomato",
  "3181": " office",
  "3182": " fat",
  "3183": " grandpa",
  "3184": "ado",
  "3185": "laimed",
  "3186": "az",
  "3187": " icy",
  "3188": " competit",
  "3189": " suggested",
  "3190": " Today",
  "3191": " shark",
  "3192": " dead",
  "3193": " notice",
  "3194": " wagon",
  "3195": "pes",
  "3196": " exclaimed",
  "3197": " mem",
  "3198": " kinds",
  "3199": " mixed",
  "3200": " wiped",
  "3201": " cher",
  "3202": " useful",
  "3203": "ext",
  "3204": " poured",
  "3205": " shells",
  "3206": "uth",
  "3207": " stri",
  "3208": " Bobo",
  "3209": " lights",
  "3210": " tools",
  "3211": " locked",
  "3212": " sounded",
  "3213": " thu",
  "3214": " stove",
  "3215": " excitedly",
  "3216": " explored",
  "3217": " aunt",
  "3218": "wards",
  "3219": " egg",
  "3220": " Rose",
  "3221": " frag",
  "3222": "eorge",
  "3223": " rose",
  "3224": "!\".",
  "3225": " son",
  "3226": "oppy",
  "3227": " shadow",
  "3228": " times",
  "3229": "arry",
  "3230": " cro",
  "3231": " enc",
  "3232": " Tweety",
  "3233": " bags",
  "3234": " fountain",
  "3235": "ention",
  "3236": " themselves",
  "3237": "oot",
  "3238": " stumbled",
  "3239": " bushes",
  "3240": "ache",
  "3241": " weal",
  "3242": "dom",
  "3243": " low",
  "3244": " spoiled",
  "3245": " showing",
  "3246": " fingers",
  "3247": " perform",
  "3248": " lab",
  "3249": " above",
  "3250": "vice",
  "3251": " thoughtful",
  "3252": " resc",
  "3253": " independ",
  "3254": "kn",
  "3255": " smaller",
  "3256": " witch",
  "3257": " dough",
  "3258": "Em",
  "3259": " fragile",
  "3260": "na",
  "3261": " dependable",
  "3262": "ray",
  "3263": " raced",
  "3264": " jog",
  "3265": "arth",
  "3266": " playful",
  "3267": "inal",
  "3268": " seem",
  "3269": " helm",
  "3270": " spinning",
  "3271": " eng",
  "3272": " tele",
  "3273": "corn",
  "3274": " clock",
  "3275": " brightly",
  "3276": "ines",
  "3277": " print",
  "3278": " stretch",
  "3279": " rode",
  "3280": " parrot",
  "3281": "ormous",
  "3282": " delighted",
  "3283": " built",
  "3284": " admired",
  "3285": " enormous",
  "3286": " law",
  "3287": " kicked",
  "3288": " U",
  "3289": " roof",
  "3290": " counted",
  "3291": " jam",
  "3292": " swe",
  "3293": " rat",
  "3294": " practice",
  "3295": "reen",
  "3296": " orig",
  "3297": " ways",
  "3298": " changed",
  "3299": " shone",
  "3300": " sunfl",
  "3301": " cop",
  "3302": " Ella",
  "3303": " reminded",
  "3304": " twig",
  "3305": " acorn",
  "3306": "ither",
  "3307": " cam",
  "3308": "ience",
  "3309": " sniff",
  "3310": " zip",
  "3311": "eeze",
  "3312": " independent",
  "3313": " hammer",
  "3314": " Your",
  "3315": " using",
  "3316": " bitter",
  "3317": " handed",
  "3318": " whispered",
  "3319": " hoop",
  "3320": "mbre",
  "3321": "known",
  "3322": " chose",
  "3323": " chir",
  "3324": "anut",
  "3325": " loll",
  "3326": " Mrs",
  "3327": " jolly",
  "3328": " umbre",
  "3329": " cone",
  "3330": " tunn",
  "3331": " solve",
  "3332": " stronger",
  "3333": " bees",
  "3334": " serious",
  "3335": " Mar",
  "3336": "ipop",
  "3337": " original",
  "3338": " tummy",
  "3339": " steal",
  "3340": " beak",
  "3341": " terrible",
  "3342": " brace",
  "3343": " mis",
  "3344": " popcorn",
  "3345": " fre",
  "3346": " lollipop",
  "3347": " painted",
  "3348": " boats",
  "3349": " allowed",
  "3350": " hairy",
  "3351": "ict",
  "3352": " moder",
  "3353": "iable",
  "3354": " sauce",
  "3355": " cleaning",
  "3356": " unknown",
  "3357": " leaving",
  "3358": " Bella",
  "3359": " dust",
  "3360": " gasped",
  "3361": " finding",
  "3362": " joined",
  "3363": " guard",
  "3364": " salad",
  "3365": " potato",
  "3366": "het",
  "3367": " bean",
  "3368": " pumpkin",
  "3369": "See",
  "3370": "upid",
  "3371": "iew",
  "3372": " Bu",
  "3373": " picking",
  "3374": " clum",
  "3375": "inary",
  "3376": " dove",
  "3377": "anger",
  "3378": " bump",
  "3379": " Nemo",
  "3380": " half",
  "3381": " sink",
  "3382": "amond",
  "3383": " costum",
  "3384": "uring",
  "3385": " yet",
  "3386": "robe",
  "3387": " metal",
  "3388": " tank",
  "3389": " bounce",
  "3390": " reliable",
  "3391": " post",
  "3392": " tor",
  "3393": " view",
  "3394": " doesn",
  "3395": " those",
  "3396": " forth",
  "3397": "hetti",
  "3398": "aghetti",
  "3399": " diamond",
  "3400": " dolphin",
  "3401": " advice",
  "3402": "com",
  "3403": " Sn",
  "3404": " hay",
  "3405": " barber",
  "3406": " modern",
  "3407": " stamp",
  "3408": " rubb",
  "3409": " thinking",
  "3410": " gem",
  "3411": " ing",
  "3412": " holds",
  "3413": "gu",
  "3414": "ebra",
  "3415": " Alice",
  "3416": " pirate",
  "3417": "ugged",
  "3418": " marble",
  "3419": " create",
  "3420": " regular",
  "3421": " Grandpa",
  "3422": "redient",
  "3423": " ingredient",
  "3424": " clumsy",
  "3425": " sleeping",
  "3426": " searching",
  "3427": " stairs",
  "3428": " wealthy",
  "3429": " yarn",
  "3430": " rushed",
  "3431": " stupid",
  "3432": " prep",
  "3433": "ilty",
  "3434": " telling",
  "3435": " Whenever",
  "3436": " spaghetti",
  "3437": " guilty",
  "3438": " cheap",
  "3439": " peanut",
  "3440": " goose",
  "3441": " char",
  "3442": "ophie",
  "3443": " rub",
  "3444": "ations",
  "3445": " magn",
  "3446": " flex",
  "3447": " Fr",
  "3448": " compass",
  "3449": " opens",
  "3450": " mask",
  "3451": " patch",
  "3452": " stat",
  "3453": " zebra",
  "3454": " arrow",
  "3455": " engine",
  "3456": "io",
  "3457": " thunder",
  "3458": " knock",
  "3459": " square",
  "3460": "illa",
  "3461": "eezed",
  "3462": "irsty",
  "3463": " angel",
  "3464": " cur",
  "3465": " graceful",
  "3466": " camera",
  "3467": " Mike",
  "3468": " umbrella",
  "3469": "cod",
  "3470": " driving",
  "3471": " bull",
  "3472": " crazy",
  "3473": " shiver",
  "3474": "Go",
  "3475": " washed",
  "3476": " carrying",
  "3477": " stage",
  "3478": "isk",
  "3479": " popular",
  "3480": " beet",
  "3481": " dull",
  "3482": "umbers",
  "3483": " missing",
  "3484": " Ducky",
  "3485": " sparkled",
  "3486": " friendship",
  "3487": " truth",
  "3488": " meal",
  "3489": " seeds",
  "3490": "fa",
  "3491": "Mary",
  "3492": " flexible",
  "3493": " impressive",
  "3494": " sne",
  "3495": " tied",
  "3496": " pebble",
  "3497": "time",
  "3498": " careless",
  "3499": " library",
  "3500": " imagined",
  "3501": " comb",
  "3502": "uper",
  "3503": " deliver",
  "3504": " nature",
  "3505": " shel",
  "3506": " ending",
  "3507": " patter",
  "3508": " destro",
  "3509": " jacket",
  "3510": " persist",
  "3511": " reward",
  "3512": " handle",
  "3513": "ision",
  "3514": " fresh",
  "3515": " rubbed",
  "3516": " ingredients",
  "3517": " dreaming",
  "3518": " shocked",
  "3519": "ric",
  "3520": " prize",
  "3521": "oomy",
  "3522": " Dave",
  "3523": " sudden",
  "3524": " crocod",
  "3525": " load",
  "3526": " enth",
  "3527": "ief",
  "3528": "ibb",
  "3529": " pige",
  "3530": " pattern",
  "3531": " compassion",
  "3532": " envel",
  "3533": " flashlight",
  "3534": " thirsty",
  "3535": " �",
  "3536": " sadly",
  "3537": " encou",
  "3538": " stranger",
  "3539": "If",
  "3540": " enthus",
  "3541": "ince",
  "3542": " Fin",
  "3543": " wheels",
  "3544": " desk",
  "3545": "ement",
  "3546": "arsh",
  "3547": " reading",
  "3548": " wire",
  "3549": " discover",
  "3550": " early",
  "3551": " mailbox",
  "3552": " fork",
  "3553": " suit",
  "3554": " numbers",
  "3555": " tem",
  "3556": " peeked",
  "3557": " penny",
  "3558": " butterflies",
  "3559": "awn",
  "3560": " cryst",
  "3561": " spilled",
  "3562": " bracelet",
  "3563": " torn",
  "3564": " rug",
  "3565": " gum",
  "3566": " \n",
  "3567": " stops",
  "3568": "loo",
  "3569": " rece",
  "3570": " env",
  "3571": " comput",
  "3572": " ahead",
  "3573": " spring",
  "3574": "bled",
  "3575": " order",
  "3576": " towers",
  "3577": "comfort",
  "3578": " sorts",
  "3579": " object",
  "3580": "ellig",
  "3581": " wing",
  "3582": " bent",
  "3583": " cere",
  "3584": " anx",
  "3585": " surf",
  "3586": " Bear",
  "3587": " pengu",
  "3588": " earth",
  "3589": " intellig",
  "3590": " warned",
  "3591": " windows",
  "3592": " Mummy",
  "3593": " spoke",
  "3594": " While",
  "3595": " pup",
  "3596": " pow",
  "3597": "gest",
  "3598": " humble",
  "3599": " uncomfort",
  "3600": " avo",
  "3601": " pant",
  "3602": " note",
  "3603": " Mandy",
  "3604": " uncomfortable",
  "3605": " placed",
  "3606": "Yay",
  "3607": "iches",
  "3608": " sunflower",
  "3609": "Ow",
  "3610": " pale",
  "3611": " travel",
  "3612": " badly",
  "3613": " older",
  "3614": " slides",
  "3615": " anxious",
  "3616": "ikes",
  "3617": " biggest",
  "3618": " scale",
  "3619": " compl",
  "3620": " stack",
  "3621": " flute",
  "3622": " trap",
  "3623": " statue",
  "3624": " scoot",
  "3625": " counting",
  "3626": " growing",
  "3627": " cooking",
  "3628": " Pe",
  "3629": " complet",
  "3630": " liz",
  "3631": " tunnel",
  "3632": " beetle",
  "3633": " celebrate",
  "3634": "host",
  "3635": " mel",
  "3636": " cupboard",
  "3637": " mush",
  "3638": " sofa",
  "3639": " Kim",
  "3640": " Bill",
  "3641": " nail",
  "3642": " harmless",
  "3643": " scatter",
  "3644": " beauty",
  "3645": " mole",
  "3646": " deaf",
  "3647": " value",
  "3648": " nurse",
  "3649": " super",
  "3650": " perm",
  "3651": " er",
  "3652": " Here",
  "3653": " shut",
  "3654": " persistent",
  "3655": " jumps",
  "3656": " crocodile",
  "3657": "While",
  "3658": " hung",
  "3659": " ghost",
  "3660": " gifted",
  "3661": " refused",
  "3662": " charming",
  "3663": " trick",
  "3664": " Give",
  "3665": " neat",
  "3666": " names",
  "3667": " courage",
  "3668": "opus",
  "3669": " yawn",
  "3670": " flour",
  "3671": "ctopus",
  "3672": " crane",
  "3673": " curt",
  "3674": " pretending",
  "3675": "cream",
  "3676": " pony",
  "3677": " cereal",
  "3678": " base",
  "3679": " sandwiches",
  "3680": "ices",
  "3681": " Lola",
  "3682": " raven",
  "3683": " Toby",
  "3684": " snuggled",
  "3685": " curtain",
  "3686": " support",
  "3687": " destroy",
  "3688": " tur",
  "3689": " ordinary",
  "3690": " chasing",
  "3691": "ud",
  "3692": " univer",
  "3693": "aid",
  "3694": " Look",
  "3695": " question",
  "3696": " envelope",
  "3697": "aches",
  "3698": " drawer",
  "3699": " triang",
  "3700": " vi",
  "3701": " camp",
  "3702": " sett",
  "3703": "used",
  "3704": " computer",
  "3705": " octopus",
  "3706": " attract",
  "3707": "Daisy",
  "3708": " rules",
  "3709": " crawl",
  "3710": " lively",
  "3711": " send",
  "3712": " gloomy",
  "3713": "Alice",
  "3714": " cartoon",
  "3715": "aby",
  "3716": " uncle",
  "3717": " intelligent",
  "3718": "ips",
  "3719": " may",
  "3720": " piano",
  "3721": " speed",
  "3722": " package",
  "3723": " blueber",
  "3724": " shaking",
  "3725": "cu",
  "3726": " helmet",
  "3727": " crystal",
  "3728": " needle",
  "3729": " mushroom",
  "3730": " turkey",
  "3731": "oe",
  "3732": " collar",
  "3733": " Eventually",
  "3734": " parade",
  "3735": " creatures",
  "3736": "stri",
  "3737": "uddy",
  "3738": "heart",
  "3739": "Re",
  "3740": " hurry",
  "3741": " twirled",
  "3742": " phot",
  "3743": " lizard",
  "3744": "illie",
  "3745": "erable",
  "3746": "enry",
  "3747": "ubby",
  "3748": "aff",
  "3749": "orant",
  "3750": " alert",
  "3751": " miserable",
  "3752": " thief",
  "3753": "gust",
  "3754": " station",
  "3755": " soldier",
  "3756": " hunter",
  "3757": " pepper",
  "3758": "ceed",
  "3759": " task",
  "3760": "arlie",
  "3761": " anywhere",
  "3762": " dug",
  "3763": " disgust",
  "3764": " bicy",
  "3765": " fireman",
  "3766": " ener",
  "3767": "cut",
  "3768": " carp",
  "3769": "iest",
  "3770": " wishes",
  "3771": " seal",
  "3772": " resist",
  "3773": " led",
  "3774": " vide",
  "3775": " beep",
  "3776": " ignorant",
  "3777": " bandage",
  "3778": " stickers",
  "3779": "coa",
  "3780": " screen",
  "3781": " radio",
  "3782": " helpless",
  "3783": " bounced",
  "3784": "tter",
  "3785": " trash",
  "3786": "Give",
  "3787": " second",
  "3788": " leash",
  "3789": " repe",
  "3790": " practiced",
  "3791": " muff",
  "3792": " shine",
  "3793": " chance",
  "3794": " letters",
  "3795": " attractive",
  "3796": " impat",
  "3797": " mill",
  "3798": " stirred",
  "3799": " cricket",
  "3800": " jeep",
  "3801": " stretched",
  "3802": " nobody",
  "3803": "urb",
  "3804": " thread",
  "3805": " pasta",
  "3806": " cube",
  "3807": " pand",
  "3808": " chubby",
  "3809": " tooth",
  "3810": "ummer",
  "3811": " fu",
  "3812": " pigeon",
  "3813": "ses",
  "3814": " jet",
  "3815": " gir",
  "3816": " compassionate",
  "3817": " George",
  "3818": "ccol",
  "3819": " Cl",
  "3820": "Benny",
  "3821": " club",
  "3822": "ccoli",
  "3823": "arian",
  "3824": " Polly",
  "3825": " trump",
  "3826": " disturb",
  "3827": "orable",
  "3828": " decorate",
  "3829": " cocoa",
  "3830": " brighter",
  "3831": " jug",
  "3832": " steps",
  "3833": " impatient",
  "3834": " tire",
  "3835": " competitive",
  "3836": " further",
  "3837": " respectful",
  "3838": " otter",
  "3839": " succeed",
  "3840": " troubled",
  "3841": " pressed",
  "3842": "olin",
  "3843": " itself",
  "3844": "aked",
  "3845": " bet",
  "3846": " ostri",
  "3847": "noon",
  "3848": " candle",
  "3849": " mug",
  "3850": " Wh",
  "3851": " afternoon",
  "3852": " attic",
  "3853": " Al",
  "3854": " restless",
  "3855": " starts",
  "3856": " pun",
  "3857": " tap",
  "3858": " somewhere",
  "3859": " ribb",
  "3860": " Are",
  "3861": "aurant",
  "3862": "stic",
  "3863": " quar",
  "3864": " dess",
  "3865": " carpet",
  "3866": " anyway",
  "3867": " shouts",
  "3868": " shoe",
  "3869": " disgusting",
  "3870": " adorable",
  "3871": " restaurant",
  "3872": " skip",
  "3873": " leop",
  "3874": " fort",
  "3875": "gn",
  "3876": " pants",
  "3877": " vine",
  "3878": " tray",
  "3879": " nuts",
  "3880": " waff",
  "3881": " case",
  "3882": "come",
  "3883": " gor",
  "3884": " fearful",
  "3885": " screw",
  "3886": " envious",
  "3887": " sweetheart",
  "3888": "opter",
  "3889": " cards",
  "3890": " allig",
  "3891": "icopter",
  "3892": "iastic",
  "3893": " distant",
  "3894": " enthusiastic",
  "3895": " broccoli",
  "3896": " hipp",
  "3897": " filthy",
  "3898": " Sh",
  "3899": " giggle",
  "3900": " exper",
  "3901": " trumpet",
  "3902": " cooked",
  "3903": " helicopter",
  "3904": " monkeys",
  "3905": "night",
  "3906": "Little",
  "3907": " reco",
  "3908": "Grandma",
  "3909": " por",
  "3910": " Where",
  "3911": "irit",
  "3912": " sandbox",
  "3913": "aroo",
  "3914": "angaroo",
  "3915": " hook",
  "3916": " Would",
  "3917": "gging",
  "3918": " bri",
  "3919": " Lee",
  "3920": " admire",
  "3921": " nowhere",
  "3922": " ten",
  "3923": " harsh",
  "3924": " backpack",
  "3925": " soar",
  "3926": " Brownie",
  "3927": " sent",
  "3928": " belt",
  "3929": " batht",
  "3930": "gie",
  "3931": " explain",
  "3932": " scooter",
  "3933": " ants",
  "3934": " meas",
  "3935": "opl",
  "3936": " poem",
  "3937": "llie",
  "3938": "eropl",
  "3939": " country",
  "3940": "cycle",
  "3941": " bathtub",
  "3942": " pipe",
  "3943": " barking",
  "3944": " aeropl",
  "3945": " quite",
  "3946": " unpack",
  "3947": "stairs",
  "3948": " cows",
  "3949": "par",
  "3950": " speak",
  "3951": " kangaroo",
  "3952": " lid",
  "3953": " squash",
  "3954": " leopard",
  "3955": " mama",
  "3956": " happier",
  "3957": " temp",
  "3958": " spell",
  "3959": " repair",
  "3960": " listening",
  "3961": " bicycle",
  "3962": " separ",
  "3963": "imi",
  "3964": " Everything",
  "3965": " summer",
  "3966": " stared",
  "3967": " cush",
  "3968": " grabs",
  "3969": " message",
  "3970": " breat",
  "3971": "uct",
  "3972": " ostrich",
  "3973": " firework",
  "3974": " Alex",
  "3975": " human",
  "3976": " loop",
  "3977": " given",
  "3978": " comet",
  "3979": " mule",
  "3980": "hood",
  "3981": "apa",
  "3982": " sort",
  "3983": " impro",
  "3984": " Joey",
  "3985": " gorilla",
  "3986": " modest",
  "3987": " paid",
  "3988": " finds",
  "3989": "Jenny",
  "3990": "year",
  "3991": " yogurt",
  "3992": " dessert",
  "3993": " obser",
  "3994": " meat",
  "3995": " violin",
  "3996": " Sophie",
  "3997": " ur",
  "3998": "Bye",
  "3999": " hedge",
  "4000": "ipping",
  "4001": " spirit",
  "4002": " Sm",
  "4003": " pulls",
  "4004": " tripped",
  "4005": "shed",
  "4006": " melon",
  "4007": " jellyfish",
  "4008": " split",
  "4009": " paws",
  "4010": " alligator",
  "4011": "Everyone",
  "4012": " rescue",
  "4013": " size",
  "4014": " holes",
  "4015": " prov",
  "4016": "ucked",
  "4017": " roared",
  "4018": " five",
  "4019": " forgave",
  "4020": " Pat",
  "4021": " cats",
  "4022": " wheat",
  "4023": " purse",
  "4024": " recogn",
  "4025": " hippo",
  "4026": " pilot",
  "4027": " hall",
  "4028": " tax",
  "4029": " sheet",
  "4030": "Daddy",
  "4031": " pal",
  "4032": " cact",
  "4033": " pushing",
  "4034": " inse",
  "4035": "ophone",
  "4036": " bikes",
  "4037": " organize",
  "4038": "ci",
  "4039": " swinging",
  "4040": " sle",
  "4041": " raft",
  "4042": " salt",
  "4043": " scold",
  "4044": " starting",
  "4045": " shade",
  "4046": " behave",
  "4047": " bin",
  "4048": " lightning",
  "4049": " fle",
  "4050": " rice",
  "4051": " oat",
  "4052": " Snow",
  "4053": " haircut",
  "4054": " triangle",
  "4055": "eer",
  "4056": " buzz",
  "4057": " energy",
  "4058": "iskers",
  "4059": " Tweetie",
  "4060": " knot",
  "4061": " frowned",
  "4062": " bur",
  "4063": "bul",
  "4064": " lear",
  "4065": "aled",
  "4066": " learnt",
  "4067": " either",
  "4068": " porch",
  "4069": " math",
  "4070": " riding",
  "4071": " ped",
  "4072": " lip",
  "4073": "lcano",
  "4074": "seum",
  "4075": " trains",
  "4076": "ebook",
  "4077": " ended",
  "4078": " notebook",
  "4079": " sticker",
  "4080": "iling",
  "4081": "inking",
  "4082": " lend",
  "4083": " wallet",
  "4084": " luck",
  "4085": " evening",
  "4086": "reci",
  "4087": " panda",
  "4088": " cactus",
  "4089": " jokes",
  "4090": " chalk",
  "4091": " bananas",
  "4092": " papers",
  "4093": " rod",
  "4094": " museum",
  "4095": " sweater",
  "4096": " appreci",
  "4097": " lions",
  "4098": " palace",
  "4099": " taxi",
  "4100": " volcano",
  "4101": "ube",
  "4102": " shopkeeper",
  "4103": " strawberry",
  "4104": " chain",
  "4105": " bears",
  "4106": " rolling",
  "4107": " boots",
  "4108": " eras",
  "4109": " hadn",
  "4110": "astic",
  "4111": " neighbour",
  "4112": " barrel",
  "4113": " shakes",
  "4114": "ffe",
  "4115": " micr",
  "4116": "icer",
  "4117": "ffee",
  "4118": "ooped",
  "4119": " silver",
  "4120": "urch",
  "4121": " laund",
  "4122": " alive",
  "4123": " smells",
  "4124": " mild",
  "4125": "play",
  "4126": " reind",
  "4127": " sock",
  "4128": " Red",
  "4129": " Jerry",
  "4130": " laundry",
  "4131": " Andy",
  "4132": " steak",
  "4133": " avoc",
  "4134": " pole",
  "4135": " ink",
  "4136": " strugg",
  "4137": "iron",
  "4138": " pushes",
  "4139": " Tr",
  "4140": " visited",
  "4141": " putting",
  "4142": " softly",
  "4143": " goal",
  "4144": " magnet",
  "4145": " judge",
  "4146": "edy",
  "4147": " tricks",
  "4148": " drawings",
  "4149": " microphone",
  "4150": " clapping",
  "4151": " pad",
  "4152": " ol",
  "4153": " hive",
  "4154": " shield",
  "4155": " tube",
  "4156": " leaned",
  "4157": " colours",
  "4158": " sailor",
  "4159": " shovel",
  "4160": " airport",
  "4161": "Ha",
  "4162": " zoomed",
  "4163": " falling",
  "4164": " rag",
  "4165": " shelter",
  "4166": " belongs",
  "4167": "aggie",
  "4168": " unlock",
  "4169": " sprink",
  "4170": " checked",
  "4171": "elery",
  "4172": "happy",
  "4173": " insist",
  "4174": " quarrel",
  "4175": " penguin",
  "4176": " ambul",
  "4177": " climbing",
  "4178": " marched",
  "4179": " Paul",
  "4180": " gro",
  "4181": " display",
  "4182": " reindeer",
  "4183": "cast",
  "4184": "hino",
  "4185": " saus",
  "4186": " Bet",
  "4187": "ense",
  "4188": " aeroplane",
  "4189": " dive",
  "4190": " dishes",
  "4191": "ophy",
  "4192": " polish",
  "4193": " barks",
  "4194": "ges",
  "4195": " avail",
  "4196": " fields",
  "4197": " grapes",
  "4198": " sandcast",
  "4199": " ambulance",
  "4200": " peek",
  "4201": "ait",
  "4202": " apologized",
  "4203": " yach",
  "4204": " soil",
  "4205": " coffee",
  "4206": " Papa",
  "4207": " skill",
  "4208": "sely",
  "4209": " costume",
  "4210": " elev",
  "4211": " oy",
  "4212": " trophy",
  "4213": " feelings",
  "4214": " planet",
  "4215": " Or",
  "4216": " hoping",
  "4217": "anic",
  "4218": " film",
  "4219": " prun",
  "4220": " rubber",
  "4221": " art",
  "4222": "ron",
  "4223": " unhappy",
  "4224": " drops",
  "4225": " shrimp",
  "4226": " Bunny",
  "4227": "nger",
  "4228": " medal",
  "4229": " kitty",
  "4230": " thanks",
  "4231": " raining",
  "4232": " men",
  "4233": "chanic",
  "4234": " stom",
  "4235": " minute",
  "4236": " elevator",
  "4237": " celery",
  "4238": " cord",
  "4239": " onion",
  "4240": " rhino",
  "4241": " available",
  "4242": "ected",
  "4243": " eraser",
  "4244": " incl",
  "4245": " page",
  "4246": " yacht",
  "4247": " short",
  "4248": "reeze",
  "4249": " shouldn",
  "4250": " fisher",
  "4251": " perfectly",
  "4252": " imagine",
  "4253": " wool",
  "4254": " winter",
  "4255": " marry",
  "4256": " basketball",
  "4257": " mechanic",
  "4258": " Buddy",
  "4259": " diary",
  "4260": "nam",
  "4261": " bul",
  "4262": " herb",
  "4263": " flies",
  "4264": " complete",
  "4265": " rever",
  "4266": " appl",
  "4267": " closely",
  "4268": " cardboard",
  "4269": " insect",
  "4270": " magaz",
  "4271": " eagerly",
  "4272": " player",
  "4273": " Whiskers",
  "4274": "eath",
  "4275": " journal",
  "4276": " Will",
  "4277": " –",
  "4278": " vend",
  "4279": " baking",
  "4280": " quit",
  "4281": " furn",
  "4282": " glove",
  "4283": "iture",
  "4284": " Smith",
  "4285": " disag",
  "4286": " furniture",
  "4287": " stuffed",
  "4288": " tub",
  "4289": " breaks",
  "4290": " imagination",
  "4291": " bulb",
  "4292": " treasures",
  "4293": " church",
  "4294": "gen",
  "4295": "ecause",
  "4296": " counter",
  "4297": "any",
  "4298": " wife",
  "4299": " headed",
  "4300": " cooler",
  "4301": "azz",
  "4302": " pair",
  "4303": " freez",
  "4304": " frogs",
  "4305": " tut",
  "4306": "quit",
  "4307": " skull",
  "4308": "mand",
  "4309": "ories",
  "4310": " pit",
  "4311": " knob",
  "4312": "ween",
  "4313": " factor",
  "4314": "stead",
  "4315": "right",
  "4316": " switch",
  "4317": " football",
  "4318": "place",
  "4319": " offer",
  "4320": "ides",
  "4321": " sunset",
  "4322": " between",
  "4323": " lie",
  "4324": "ifl",
  "4325": "aulifl",
  "4326": " cheek",
  "4327": " swung",
  "4328": " sym",
  "4329": " factory",
  "4330": "Ch",
  "4331": " Ted",
  "4332": " cups",
  "4333": " motorcycle",
  "4334": " chirp",
  "4335": " mos",
  "4336": "quito",
  "4337": " flame",
  "4338": " twink",
  "4339": " shouting",
  "4340": "nament",
  "4341": " painter",
  "4342": " golf",
  "4343": " peach",
  "4344": " ornament",
  "4345": "kelet",
  "4346": " blowing",
  "4347": " hut",
  "4348": "affe",
  "4349": " sung",
  "4350": "..",
  "4351": " hotel",
  "4352": " seeing",
  "4353": " folder",
  "4354": " caulifl",
  "4355": " vendor",
  "4356": "ccer",
  "4357": " Mimi",
  "4358": "lass",
  "4359": " video",
  "4360": " mixer",
  "4361": "pe",
  "4362": "ab",
  "4363": "izes",
  "4364": "bol",
  "4365": " throws",
  "4366": " pirates",
  "4367": "Your",
  "4368": " created",
  "4369": "orses",
  "4370": " heads",
  "4371": " oil",
  "4372": " kay",
  "4373": " frame",
  "4374": " mosquito",
  "4375": "angu",
  "4376": " cushion",
  "4377": "mm",
  "4378": " soccer",
  "4379": " Maria",
  "4380": " fisherman",
  "4381": " coal",
  "4382": " Bun",
  "4383": "zzy",
  "4384": " symbol",
  "4385": " horses",
  "4386": " cable",
  "4387": "ceros",
  "4388": " popped",
  "4389": " langu",
  "4390": " wipe",
  "4391": " pine",
  "4392": " Baby",
  "4393": " attention",
  "4394": " skelet",
  "4395": " battery",
  "4396": " powder",
  "4397": " cauliflower",
  "4398": " stud",
  "4399": " laser",
  "4400": "ef",
  "4401": "render",
  "4402": " forgotten",
  "4403": " Lilly",
  "4404": " weather",
  "4405": "rod",
  "4406": " lives",
  "4407": "osie",
  "4408": " mop",
  "4409": " fishing",
  "4410": " celebrated",
  "4411": " ax",
  "4412": " rot",
  "4413": " since",
  "4414": " trail",
  "4415": "elcome",
  "4416": "aws",
  "4417": " maze",
  "4418": " photo",
  "4419": " God",
  "4420": "ites",
  "4421": " yoga",
  "4422": " surround",
  "4423": " Ro",
  "4424": " waving",
  "4425": " Grace",
  "4426": " slept",
  "4427": " sneak",
  "4428": " anch",
  "4429": " dear",
  "4430": "unately",
  "4431": " giraffe",
  "4432": " introd",
  "4433": " rhinoceros",
  "4434": "Inside",
  "4435": " poke",
  "4436": " swamp",
  "4437": " flea",
  "4438": " points",
  "4439": " itch",
  "4440": " point",
  "4441": " glowing",
  "4442": " fireplace",
  "4443": " breeze",
  "4444": "ney",
  "4445": "lasses",
  "4446": " sub",
  "4447": " vet",
  "4448": " sunglasses",
  "4449": " Charlie",
  "4450": " kingdom",
  "4451": " Annie",
  "4452": " memories",
  "4453": " tutor",
  "4454": " streng",
  "4455": " tuna",
  "4456": " iron",
  "4457": " reve",
  "4458": " vest",
  "4459": "spap",
  "4460": " Sandy",
  "4461": " petals",
  "4462": " fog",
  "4463": " mistakes",
  "4464": " axe",
  "4465": " complain",
  "4466": " baseball",
  "4467": " dancer",
  "4468": " chickens",
  "4469": " parent",
  "4470": "hero",
  "4471": " newspap",
  "4472": " ig",
  "4473": " strength",
  "4474": " greedy",
  "4475": " ceiling",
  "4476": "ckey",
  "4477": " squirrels",
  "4478": " hockey",
  "4479": " igloo",
  "4480": " sir",
  "4481": " grin",
  "4482": " anchor",
  "4483": " skeleton",
  "4484": "rosc",
  "4485": " sniffed",
  "4486": " grocer",
  "4487": " superhero",
  "4488": " argue",
  "4489": " Un",
  "4490": " napkin",
  "4491": "chie",
  "4492": "Eventually",
  "4493": " golden",
  "4494": "ues",
  "4495": " hanging",
  "4496": " trave",
  "4497": " musician",
  "4498": "medi",
  "4499": " Tony",
  "4500": " skirt",
  "4501": "roscope",
  "4502": " temple",
  "4503": " staff",
  "4504": " unif",
  "4505": " agree",
  "4506": " sque",
  "4507": " bury",
  "4508": "mediately",
  "4509": " theater",
  "4510": " uniform",
  "4511": " discu",
  "4512": " eaten",
  "4513": " Jess",
  "4514": " slipper",
  "4515": " welcomed",
  "4516": " seas",
  "4517": "Thanks",
  "4518": " shoulder",
  "4519": " zipper",
  "4520": " quietly",
  "4521": "ssible",
  "4522": " meeting",
  "4523": " lime",
  "4524": " invest",
  "4525": "istol",
  "4526": " microscope",
  "4527": " pinch",
  "4528": "chair",
  "4529": " flapped",
  "4530": " slippery",
  "4531": " accepted",
  "4532": " fought",
  "4533": " investig",
  "4534": " pistol",
  "4535": "erc",
  "4536": " doors",
  "4537": " miner",
  "4538": "reek",
  "4539": " radish",
  "4540": " plastic",
  "4541": " throwing",
  "4542": " calls",
  "4543": " bouncing",
  "4544": "tress",
  "4545": " mattress",
  "4546": "men",
  "4547": " Instead",
  "4548": "Today",
  "4549": " surrender",
  "4550": "aces",
  "4551": " cob",
  "4552": "house",
  "4553": " pear",
  "4554": " vroom",
  "4555": " kayak",
  "4556": " creek",
  "4557": "tain",
  "4558": " moves",
  "4559": "Emma",
  "4560": " Henry",
  "4561": " sticky",
  "4562": "Qu",
  "4563": " lawy",
  "4564": "Wait",
  "4565": " novel",
  "4566": "alley",
  "4567": " cub",
  "4568": " avocado",
  "4569": " cared",
  "4570": " suff",
  "4571": " freezer",
  "4572": " lotion",
  "4573": "aud",
  "4574": "case",
  "4575": " Millie",
  "4576": "ler",
  "4577": "ison",
  "4578": "was",
  "4579": "te",
  "4580": " fauc",
  "4581": "anny",
  "4582": " armchair",
  "4583": " writing",
  "4584": "inked",
  "4585": " reef",
  "4586": " makeup",
  "4587": " mystery",
  "4588": " valley",
  "4589": "web",
  "4590": " tug",
  "4591": " investigate",
  "4592": " news",
  "4593": " sailing",
  "4594": " cherries",
  "4595": " regret",
  "4596": " crib",
  "4597": "washer",
  "4598": "imney",
  "4599": " exerc",
  "4600": " oyster",
  "4601": " faucet",
  "4602": " splashing",
  "4603": " agre",
  "4604": " Kate",
  "4605": " ticket",
  "4606": " collected",
  "4607": " worth",
  "4608": " chimney",
  "4609": "Together",
  "4610": " toil",
  "4611": " presents",
  "4612": " dishwasher",
  "4613": " magazine",
  "4614": " sprayed",
  "4615": " happens",
  "4616": " wags",
  "4617": "Next",
  "4618": " prevent",
  "4619": " cobweb",
  "4620": " quack",
  "4621": " veil",
  "4622": " entered",
  "4623": " castles",
  "4624": " tear",
  "4625": " shrugged",
  "4626": " har",
  "4627": " passport",
  "4628": " applaud",
  "4629": " separate",
  "4630": " chess",
  "4631": " scolded",
  "4632": "lend",
  "4633": "Sammy",
  "4634": " weigh",
  "4635": " toilet",
  "4636": " alarm",
  "4637": " Danny",
  "4638": "ives",
  "4639": " blankets",
  "4640": " rake",
  "4641": " ignored",
  "4642": " tucked",
  "4643": " lawyer",
  "4644": " choice",
  "4645": "ived",
  "4646": " hopes",
  "4647": " coats",
  "4648": " attach",
  "4649": " candles",
  "4650": " kisses",
  "4651": " follows",
  "4652": " appro",
  "4653": " classroom",
  "4654": " Ru",
  "4655": "eve",
  "4656": "ring",
  "4657": " puddles",
  "4658": " easily",
  "4659": " apart",
  "4660": "ety",
  "4661": "sit",
  "4662": " disappear",
  "4663": " beef",
  "4664": " chairs",
  "4665": " burned",
  "4666": " bother",
  "4667": " letting",
  "4668": " straight",
  "4669": " Next",
  "4670": "eterin",
  "4671": "eterinarian",
  "4672": "Is",
  "4673": " yield",
  "4674": " ward",
  "4675": " dressed",
  "4676": " cane",
  "4677": " trusted",
  "4678": " language",
  "4679": " sizes",
  "4680": " veterinarian",
  "4681": " raz",
  "4682": " teleph",
  "4683": "raged",
  "4684": " caring",
  "4685": " planes",
  "4686": " wardrobe",
  "4687": " jewelry",
  "4688": "atched",
  "4689": " blinked",
  "4690": "iday",
  "4691": " shower",
  "4692": " rise",
  "4693": " Su",
  "4694": "Ann",
  "4695": " missile",
  "4696": " keeping",
  "4697": " lawn",
  "4698": " requ",
  "4699": " stable",
  "4700": " cabinet",
  "4701": " crossed",
  "4702": " oak",
  "4703": " Harry",
  "4704": " bookshe",
  "4705": "vision",
  "4706": " stro",
  "4707": " telephone",
  "4708": " newspaper",
  "4709": "Mandy",
  "4710": "mend",
  "4711": " claws",
  "4712": " rooms",
  "4713": " sigh",
  "4714": " puzzles",
  "4715": "rs",
  "4716": " aut",
  "4717": " trade",
  "4718": " incre",
  "4719": "ival",
  "4720": " whisper",
  "4721": " cell",
  "4722": " tornado",
  "4723": " scratch",
  "4724": "una",
  "4725": "anges",
  "4726": " bookcase",
  "4727": " inf",
  "4728": "ampoo",
  "4729": " blueberries",
  "4730": " snap",
  "4731": " amazement",
  "4732": " perfu",
  "4733": " Miss",
  "4734": "ction",
  "4735": "ommend",
  "4736": " squeezed",
  "4737": " bookshelf",
  "4738": "Because",
  "4739": " recommend",
  "4740": " Rosie",
  "4741": " opera",
  "4742": " subway",
  "4743": " pra",
  "4744": "atie",
  "4745": " gym",
  "4746": " delay",
  "4747": " grill",
  "4748": " See",
  "4749": " Ab",
  "4750": " razor",
  "4751": " blouse",
  "4752": " request",
  "4753": " crawling",
  "4754": " Help",
  "4755": " pur",
  "4756": " poked",
  "4757": " television",
  "4758": " bill",
  "4759": " hol",
  "4760": "ggy",
  "4761": " following",
  "4762": "omes",
  "4763": "iction",
  "4764": " True",
  "4765": " shampoo",
  "4766": " file",
  "4767": " licks",
  "4768": " spear",
  "4769": " squeeze",
  "4770": " holiday",
  "4771": " experience",
  "4772": " lumber",
  "4773": " improve",
  "4774": " perfume",
  "4775": " mint",
  "4776": " serve",
  "4777": " demand",
  "4778": " steam",
  "4779": " ringing",
  "4780": " cliff",
  "4781": "ictionary",
  "4782": "fortunately",
  "4783": " crow",
  "4784": "bbie",
  "4785": " ribbon",
  "4786": "ah",
  "4787": " immediately",
  "4788": " helper",
  "4789": " muffin",
  "4790": " fest",
  "4791": " growled",
  "4792": " isn",
  "4793": " begged",
  "4794": " dictionary",
  "4795": " shrink",
  "4796": " matches",
  "4797": " waste",
  "4798": " blood",
  "4799": " birdc",
  "4800": " prop",
  "4801": " ideas",
  "4802": " warmth",
  "4803": "ib",
  "4804": " mustache",
  "4805": " sneeze",
  "4806": "ores",
  "4807": " Jul",
  "4808": " invite",
  "4809": "hic",
  "4810": " gear",
  "4811": " birdcage",
  "4812": " vehic",
  "4813": "ups",
  "4814": " fuel",
  "4815": " alright",
  "4816": " rabbits",
  "4817": "uckily",
  "4818": "asis",
  "4819": " calend",
  "4820": " weep",
  "4821": " yucky",
  "4822": " flutter",
  "4823": " instr",
  "4824": " fallen",
  "4825": " married",
  "4826": " Re",
  "4827": " berry",
  "4828": "lier",
  "4829": " rail",
  "4830": " row",
  "4831": " pastry",
  "4832": "Did",
  "4833": " refre",
  "4834": "ucture",
  "4835": " worms",
  "4836": " structure",
  "4837": " laught",
  "4838": " surprises",
  "4839": " bravely",
  "4840": " below",
  "4841": " calendar",
  "4842": " oasis",
  "4843": " Clara",
  "4844": " wandered",
  "4845": " ble",
  "4846": "Will",
  "4847": " wigg",
  "4848": " kneel",
  "4849": "ising",
  "4850": " dire",
  "4851": " understanding",
  "4852": " hurting",
  "4853": " laughter",
  "4854": "omeday",
  "4855": " drain",
  "4856": " pages",
  "4857": "Ok",
  "4858": " hearts",
  "4859": " enter",
  "4860": " airpl",
  "4861": "inky",
  "4862": " item",
  "4863": " Is",
  "4864": "omob",
  "4865": " harb",
  "4866": " reaches",
  "4867": " apron",
  "4868": "asp",
  "4869": " safety",
  "4870": " float",
  "4871": " crash",
  "4872": " automob",
  "4873": " bathe",
  "4874": " buried",
  "4875": " junk",
  "4876": " buckle",
  "4877": " admir",
  "4878": " root",
  "4879": " captain",
  "4880": " strawberries",
  "4881": "achel",
  "4882": " myself",
  "4883": " relaxed",
  "4884": " sandcastle",
  "4885": "oral",
  "4886": " skills",
  "4887": " ignore",
  "4888": "Welcome",
  "4889": " plates",
  "4890": "'ve",
  "4891": " whip",
  "4892": "Lisa",
  "4893": " King",
  "4894": " spade",
  "4895": " moments",
  "4896": " Fo",
  "4897": " reverse",
  "4898": "htray",
  "4899": " Who",
  "4900": "icing",
  "4901": " quiz",
  "4902": " ashtray",
  "4903": " festival",
  "4904": "ari",
  "4905": " beamed",
  "4906": " snapped",
  "4907": "riger",
  "4908": "'.",
  "4909": " someday",
  "4910": "cakes",
  "4911": " refriger",
  "4912": " raise",
  "4913": " received",
  "4914": "Yuck",
  "4915": " refrigerator",
  "4916": " earlier",
  "4917": " tong",
  "4918": " lic",
  "4919": " Freddy",
  "4920": " weap",
  "4921": " vac",
  "4922": " teaching",
  "4923": " mass",
  "4924": " harbor",
  "4925": " People",
  "4926": " model",
  "4927": " Snowy",
  "4928": " Once",
  "4929": " sparkling",
  "4930": " spots",
  "4931": "aped",
  "4932": " insisted",
  "4933": " vanished",
  "4934": " saving",
  "4935": " socks",
  "4936": " bumped",
  "4937": " Its",
  "4938": " thumb",
  "4939": "anna",
  "4940": " dried",
  "4941": " supply",
  "4942": "ission",
  "4943": " blackboard",
  "4944": "igail",
  "4945": " prepare",
  "4946": " jewels",
  "4947": " jail",
  "4948": " spending",
  "4949": " balan",
  "4950": " scattered",
  "4951": " Before",
  "4952": "xy",
  "4953": " toes",
  "4954": " scooped",
  "4955": " settled",
  "4956": " permission",
  "4957": " sparkle",
  "4958": " known",
  "4959": "ctly",
  "4960": " breathe",
  "4961": " boot",
  "4962": " yawned",
  "4963": " res",
  "4964": " May",
  "4965": "With",
  "4966": "amber",
  "4967": " James",
  "4968": " achie",
  "4969": " destroyed",
  "4970": " bathrobe",
  "4971": " tease",
  "4972": " remain",
  "4973": " hardly",
  "4974": " encouraged",
  "4975": " replace",
  "4976": " waffle",
  "4977": "antly",
  "4978": " pride",
  "4979": " lemonade",
  "4980": " dare",
  "4981": " hanger",
  "4982": " sits",
  "4983": " pulling",
  "4984": " Have",
  "4985": " decorations",
  "4986": "sters",
  "4987": "ops",
  "4988": " remove",
  "4989": " cuddled",
  "4990": " hate",
  "4991": " daisy",
  "4992": " license",
  "4993": "Peter",
  "4994": "avid",
  "4995": " beans",
  "4996": " simp",
  "4997": " port",
  "4998": " respons",
  "4999": "izard",
  "5000": " praised",
  "5001": "sing",
  "5002": "reat",
  "5003": " chirping",
  "5004": " hits",
  "5005": "ents",
  "5006": " equ",
  "5007": " fastest",
  "5008": " suffer",
  "5009": "xture",
  "5010": " buzzing",
  "5011": " patiently",
  "5012": " dresses",
  "5013": " mention",
  "5014": " bleed",
  "5015": "sity",
  "5016": " rhy",
  "5017": " automobile",
  "5018": "nies",
  "5019": " appreciate",
  "5020": " poppy",
  "5021": " destination",
  "5022": " taller",
  "5023": " mall",
  "5024": "osed",
  "5025": " homes",
  "5026": " nation",
  "5027": "ium",
  "5028": " flav",
  "5029": " digg",
  "5030": " guy",
  "5031": " climbs",
  "5032": " washing",
  "5033": " palm",
  "5034": " glo",
  "5035": " shot",
  "5036": " label",
  "5037": " digging",
  "5038": " believed",
  "5039": "Emily",
  "5040": " approached",
  "5041": " hesit",
  "5042": "fied",
  "5043": "Mmm",
  "5044": "All",
  "5045": " none",
  "5046": " tore",
  "5047": " deeper",
  "5048": " wine",
  "5049": " infant",
  "5050": "ude",
  "5051": " restore",
  "5052": " score",
  "5053": " Tina",
  "5054": " hers",
  "5055": "rm",
  "5056": " mitten",
  "5057": " chamber",
  "5058": " Ollie",
  "5059": " sausage",
  "5060": " struggling",
  "5061": " heat",
  "5062": " differen",
  "5063": " tongue",
  "5064": " hills",
  "5065": " hurric",
  "5066": " punish",
  "5067": " pillows",
  "5068": " billboard",
  "5069": " sneezed",
  "5070": " sport",
  "5071": " wizard",
  "5072": " Each",
  "5073": " upstairs",
  "5074": " thrilled",
  "5075": " provide",
  "5076": " brain",
  "5077": " awe",
  "5078": " discuss",
  "5079": " panic",
  "5080": " warning",
  "5081": " twisted",
  "5082": " glowed",
  "5083": "Jake",
  "5084": " universe",
  "5085": " firef",
  "5086": " therm",
  "5087": " vacation",
  "5088": " worse",
  "5089": " crunch",
  "5090": " poison",
  "5091": " shed",
  "5092": " solved",
  "5093": " parts",
  "5094": "osity",
  "5095": " Co",
  "5096": "bey",
  "5097": " event",
  "5098": " setting",
  "5099": "allen",
  "5100": " tour",
  "5101": " remained",
  "5102": " airplane",
  "5103": " hurricane",
  "5104": " thermomet",
  "5105": " plays",
  "5106": "Mark",
  "5107": " examine",
  "5108": " sparkles",
  "5109": " shooting",
  "5110": " invit",
  "5111": " neighborhood",
  "5112": " sty",
  "5113": " chores",
  "5114": " oranges",
  "5115": " floated",
  "5116": " ranch",
  "5117": " challen",
  "5118": " Maggie",
  "5119": "thm",
  "5120": " weeks",
  "5121": " leak",
  "5122": " Everyday",
  "5123": " university",
  "5124": " paints",
  "5125": " thermometer",
  "5126": "These",
  "5127": " bites",
  "5128": " repeat",
  "5129": " bang",
  "5130": "adium",
  "5131": " floating",
  "5132": " fixing",
  "5133": "ging",
  "5134": " measured",
  "5135": "Sh",
  "5136": " Betsy",
  "5137": " stadium",
  "5138": " grinned",
  "5139": "!'",
  "5140": "do",
  "5141": "!\",",
  "5142": " surrounded",
  "5143": " during",
  "5144": " supposed",
  "5145": "aspoon",
  "5146": " conf",
  "5147": " rhythm",
  "5148": " massage",
  "5149": " brings",
  "5150": " paused",
  "5151": " cherry",
  "5152": "Fl",
  "5153": " gifts",
  "5154": " fut",
  "5155": " sprinkles",
  "5156": " fasc",
  "5157": " future",
  "5158": " memory",
  "5159": " teaspoon",
  "5160": " grey",
  "5161": "rise",
  "5162": " collection",
  "5163": " signs",
  "5164": "Jen",
  "5165": " marbles",
  "5166": "Not",
  "5167": "bbles",
  "5168": " jazz",
  "5169": "Would",
  "5170": " stomach",
  "5171": " Buzz",
  "5172": "emember",
  "5173": " gust",
  "5174": " wisdom",
  "5175": " actually",
  "5176": " flood",
  "5177": " discovery",
  "5178": " includ",
  "5179": " sew",
  "5180": " vehicle",
  "5181": " tide",
  "5182": " lily",
  "5183": " sunrise",
  "5184": " girls",
  "5185": " Good",
  "5186": "ishing",
  "5187": " Liz",
  "5188": "vet",
  "5189": " meowed",
  "5190": "ls",
  "5191": " elephants",
  "5192": " urge",
  "5193": " exercise",
  "5194": " mailman",
  "5195": "umble",
  "5196": " lugg",
  "5197": " decision",
  "5198": " chewed",
  "5199": " rush",
  "5200": " weapon",
  "5201": " strang",
  "5202": " observe",
  "5203": " luggage",
  "5204": " unite",
  "5205": " cartoons",
  "5206": "ero",
  "5207": " sore",
  "5208": " fascin",
  "5209": " tomatoes",
  "5210": "iers",
  "5211": " scur",
  "5212": " possible",
  "5213": " toe",
  "5214": " Later",
  "5215": "allow",
  "5216": "cles",
  "5217": " sunlight",
  "5218": "ities",
  "5219": " folded",
  "5220": " curled",
  "5221": " V",
  "5222": " chirped",
  "5223": " rust",
  "5224": " melted",
  "5225": " Ruby",
  "5226": " spill",
  "5227": " cakes",
  "5228": "uing",
  "5229": " sip",
  "5230": " collecting",
  "5231": " x",
  "5232": " grape",
  "5233": "son",
  "5234": " Joy",
  "5235": " mineral",
  "5236": "eed",
  "5237": " Rachel",
  "5238": " brus",
  "5239": " difference",
  "5240": " problems",
  "5241": " bak",
  "5242": " tracks",
  "5243": "Le",
  "5244": " jogging",
  "5245": " wherever",
  "5246": "Ready",
  "5247": " Me",
  "5248": " mountains",
  "5249": "ipment",
  "5250": "Al",
  "5251": " bes",
  "5252": "Johnny",
  "5253": " sliding",
  "5254": "eration",
  "5255": " manage",
  "5256": " equipment",
  "5257": "etch",
  "5258": " laid",
  "5259": " lick",
  "5260": " admiring",
  "5261": " watered",
  "5262": "cious",
  "5263": " satis",
  "5264": " contain",
  "5265": " bricks",
  "5266": " Spike",
  "5267": "oved",
  "5268": " twigs",
  "5269": "rr",
  "5270": " Someone",
  "5271": " patterns",
  "5272": " kindly",
  "5273": " petted",
  "5274": " skipping",
  "5275": " potatoes",
  "5276": " seats",
  "5277": "Ex",
  "5278": "bers",
  "5279": " soldiers",
  "5280": " gloves",
  "5281": " spaces",
  "5282": "zag",
  "5283": "joyed",
  "5284": "unday",
  "5285": " receive",
  "5286": " keeper",
  "5287": " copper",
  "5288": " emer",
  "5289": " slice",
  "5290": " lets",
  "5291": " gain",
  "5292": "ddy",
  "5293": " continue",
  "5294": " ordered",
  "5295": " strangers",
  "5296": "walk",
  "5297": " overjoyed",
  "5298": " watches",
  "5299": " gotten",
  "5300": " pigs",
  "5301": "omas",
  "5302": " zipped",
  "5303": "mother",
  "5304": " Sunday",
  "5305": " whistling",
  "5306": " lands",
  "5307": " gaz",
  "5308": " beside",
  "5309": " safari",
  "5310": " beg",
  "5311": " prayed",
  "5312": " Cat",
  "5313": " peered",
  "5314": "Susie",
  "5315": " network",
  "5316": " Steve",
  "5317": "bbled",
  "5318": " spit",
  "5319": " eff",
  "5320": " invitation",
  "5321": " marching",
  "5322": " ours",
  "5323": " Penny",
  "5324": "ases",
  "5325": " glitter",
  "5326": " wooden",
  "5327": " earthqu",
  "5328": " sidewalk",
  "5329": " eagle",
  "5330": "igzag",
  "5331": " grocery",
  "5332": " drinks",
  "5333": " doggy",
  "5334": "irp",
  "5335": " weight",
  "5336": " navy",
  "5337": " acorns",
  "5338": " attached",
  "5339": " raised",
  "5340": " disagreed",
  "5341": "loe",
  "5342": " weren",
  "5343": "Yum",
  "5344": " Poppy",
  "5345": " Milly",
  "5346": " beat",
  "5347": " company",
  "5348": "Ouch",
  "5349": " mister",
  "5350": " burning",
  "5351": "fy",
  "5352": " onwards",
  "5353": "hest",
  "5354": "\",",
  "5355": " wre",
  "5356": " happiest",
  "5357": " Spark",
  "5358": "Moral",
  "5359": " racing",
  "5360": " brid",
  "5361": "Before",
  "5362": " crashed",
  "5363": " spoons",
  "5364": " fed",
  "5365": " crunchy",
  "5366": " peanuts",
  "5367": " whistled",
  "5368": " Sharing",
  "5369": " price",
  "5370": "seek",
  "5371": " meow",
  "5372": " hurried",
  "5373": " officer",
  "5374": " hist",
  "5375": " Ra",
  "5376": " brick",
  "5377": " accom",
  "5378": " tremb",
  "5379": " refreshed",
  "5380": " pies",
  "5381": " remem",
  "5382": " flap",
  "5383": " works",
  "5384": " clearing",
  "5385": "nie",
  "5386": " operation",
  "5387": " Sad",
  "5388": " prepared",
  "5389": " scratched",
  "5390": " remembers",
  "5391": " bowed",
  "5392": " history",
  "5393": " exa",
  "5394": "aded",
  "5395": " lips",
  "5396": "amb",
  "5397": "Really",
  "5398": " Katie",
  "5399": " prune",
  "5400": " fireworks",
  "5401": " escaped",
  "5402": "Ro",
  "5403": " dinosaurs",
  "5404": " menu",
  "5405": " bridges",
  "5406": " Abigail",
  "5407": " talent",
  "5408": " planted",
  "5409": "amie",
  "5410": " buildings",
  "5411": " revealed",
  "5412": " easier",
  "5413": " bye",
  "5414": " turning",
  "5415": " comfy",
  "5416": " screams",
  "5417": " olive",
  "5418": " Chr",
  "5419": " brand",
  "5420": " Qu",
  "5421": " hated",
  "5422": " selling",
  "5423": " chat",
  "5424": " snowball",
  "5425": "die",
  "5426": " Luna",
  "5427": " recognized",
  "5428": " warn",
  "5429": " accompl",
  "5430": " crept",
  "5431": " precious",
  "5432": " Zoe",
  "5433": " landsc",
  "5434": "omething",
  "5435": " Fro",
  "5436": " strip",
  "5437": " Not",
  "5438": " padd",
  "5439": " muddy",
  "5440": " wid",
  "5441": " drinking",
  "5442": " sings",
  "5443": "xygen",
  "5444": " pupp",
  "5445": " beds",
  "5446": "ecture",
  "5447": " Mat",
  "5448": " settle",
  "5449": " earthquake",
  "5450": " simple",
  "5451": " effort",
  "5452": "cc",
  "5453": " Remy",
  "5454": " spaceship",
  "5455": " reminder",
  "5456": " measuring",
  "5457": " slip",
  "5458": " perched",
  "5459": " lecture",
  "5460": " bones",
  "5461": " served",
  "5462": " appear",
  "5463": " wonders",
  "5464": " shadows",
  "5465": " waits",
  "5466": " voices",
  "5467": " cuddle",
  "5468": " pedal",
  "5469": " everyday",
  "5470": " pitch",
  "5471": " comforted",
  "5472": " agreement",
  "5473": " responsible",
  "5474": " circus",
  "5475": " rained",
  "5476": " vel",
  "5477": " obey",
  "5478": "ffic",
  "5479": " vict",
  "5480": " tip",
  "5481": " soared",
  "5482": " allow",
  "5483": " anytime",
  "5484": " trapped",
  "5485": " cal",
  "5486": " whatever",
  "5487": " zigzag",
  "5488": " tastes",
  "5489": " landscape",
  "5490": " apologize",
  "5491": " cutting",
  "5492": " succeeded",
  "5493": " shopping",
  "5494": " secrets",
  "5495": " rang",
  "5496": " pets",
  "5497": " villag",
  "5498": " fash",
  "5499": " David",
  "5500": " velvet",
  "5501": " printer",
  "5502": " disturbed",
  "5503": " waist",
  "5504": " items",
  "5505": " swims",
  "5506": " bun",
  "5507": " traffic",
  "5508": " practicing",
  "5509": " steel",
  "5510": " oats",
  "5511": " bringing",
  "5512": " exactly",
  "5513": " sisters",
  "5514": " rested",
  "5515": " visiting",
  "5516": " scoop",
  "5517": " activ",
  "5518": "Luckily",
  "5519": " costumes",
  "5520": "annah",
  "5521": " answers",
  "5522": " Frank",
  "5523": "izing",
  "5524": " olives",
  "5525": "ien",
  "5526": "mble",
  "5527": " brushed",
  "5528": " style",
  "5529": " mouths",
  "5530": " Pr",
  "5531": " soak",
  "5532": "laire",
  "5533": " curiosity",
  "5534": "ishes",
  "5535": " outdo",
  "5536": "neath",
  "5537": " breaking",
  "5538": " fashion",
  "5539": " Sunny",
  "5540": " rele",
  "5541": " owned",
  "5542": " ladyb",
  "5543": " encourage",
  "5544": " Nut",
  "5545": " knelt",
  "5546": " fascinated",
  "5547": " leather",
  "5548": "mare",
  "5549": "iggy",
  "5550": " image",
  "5551": " villagers",
  "5552": "oming",
  "5553": " nails",
  "5554": " beneath",
  "5555": "icorn",
  "5556": " underground",
  "5557": " waffles",
  "5558": "Tweet",
  "5559": " unicorn",
  "5560": " sadness",
  "5561": "enty",
  "5562": "terday",
  "5563": " unlocked",
  "5564": "inda",
  "5565": " recognize",
  "5566": " died",
  "5567": " downstairs",
  "5568": " creation",
  "5569": " catching",
  "5570": " Chirp",
  "5571": " grandmother",
  "5572": " oxygen",
  "5573": "isten",
  "5574": " monsters",
  "5575": " tremble",
  "5576": " chef",
  "5577": " Je",
  "5578": " eats",
  "5579": " These",
  "5580": " pupil",
  "5581": "ik",
  "5582": " wanting",
  "5583": " nightmare",
  "5584": " jogged",
  "5585": " cape",
  "5586": " stripes",
  "5587": " doctors",
  "5588": " soaring",
  "5589": " blueberry",
  "5590": "ley",
  "5591": " However",
  "5592": " struggled",
  "5593": " lemons",
  "5594": " Beth",
  "5595": " wondering",
  "5596": " bleeding",
  "5597": " punished",
  "5598": "Happy",
  "5599": " gained",
  "5600": " famil",
  "5601": "ayla",
  "5602": "dam",
  "5603": " fetch",
  "5604": " Something",
  "5605": " examined",
  "5606": " nicer",
  "5607": " guessed",
  "5608": " planned",
  "5609": " drag",
  "5610": " caut",
  "5611": " situ",
  "5612": " machines",
  "5613": " mission",
  "5614": "First",
  "5615": " stealing",
  "5616": " argued",
  "5617": "uke",
  "5618": " area",
  "5619": " First",
  "5620": " comple",
  "5621": " piles",
  "5622": " si",
  "5623": " herbs",
  "5624": " introduc",
  "5625": " freeze",
  "5626": " stirring",
  "5627": "”.",
  "5628": " ripped",
  "5629": "Sometimes",
  "5630": " six",
  "5631": " challenge",
  "5632": " tugged",
  "5633": " studied",
  "5634": " firemen",
  "5635": "Un",
  "5636": " bend",
  "5637": " wagging",
  "5638": " bare",
  "5639": " zooming",
  "5640": "Or",
  "5641": " accidents",
  "5642": " victory",
  "5643": " Ow",
  "5644": " satisfied",
  "5645": " wreck",
  "5646": " Suzy",
  "5647": " instruct",
  "5648": " properly",
  "5649": "agull",
  "5650": " keys",
  "5651": "ulu",
  "5652": " winning",
  "5653": " Uncle",
  "5654": " shivering",
  "5655": "Dave",
  "5656": "looking",
  "5657": " bunnies",
  "5658": " increase",
  "5659": "ux",
  "5660": "ding",
  "5661": " tune",
  "5662": " gathering",
  "5663": " mice",
  "5664": " exit",
  "5665": " firefight",
  "5666": " outdoors",
  "5667": " winner",
  "5668": " twirling",
  "5669": " slapped",
  "5670": " loaded",
  "5671": " teasing",
  "5672": " peel",
  "5673": " decorated",
  "5674": " Ke",
  "5675": "uxu",
  "5676": " supplies",
  "5677": " deser",
  "5678": " yelling",
  "5679": " neighbourhood",
  "5680": " seagull",
  "5681": " underneath",
  "5682": " permit",
  "5683": " sights",
  "5684": " tickets",
  "5685": "usan",
  "5686": " ann",
  "5687": " pancakes",
  "5688": "oh",
  "5689": " begin",
  "5690": " burrow",
  "5691": " pearl",
  "5692": " rides",
  "5693": " siren",
  "5694": " peaches",
  "5695": " Jan",
  "5696": " mixing",
  "5697": " released",
  "5698": " draws",
  "5699": " Tw",
  "5700": " weighed",
  "5701": "aky",
  "5702": "Fluffy",
  "5703": "ena",
  "5704": " sneaked",
  "5705": "ica",
  "5706": " Floppy",
  "5707": "indy",
  "5708": ".'",
  "5709": " confident",
  "5710": " realize",
  "5711": " instructions",
  "5712": " spiders",
  "5713": " introduce",
  "5714": " luxu",
  "5715": " muffins",
  "5716": " dam",
  "5717": "shing",
  "5718": " contro",
  "5719": "Lola",
  "5720": "Cl",
  "5721": " pinched",
  "5722": " solut",
  "5723": " budge",
  "5724": " zero",
  "5725": " competition",
  "5726": " Lucky",
  "5727": " Julie",
  "5728": " Nutty",
  "5729": " printed",
  "5730": " studying",
  "5731": " loving",
  "5732": "Bella",
  "5733": " beha",
  "5734": " pockets",
  "5735": " inch",
  "5736": " Coco",
  "5737": " baked",
  "5738": "ales",
  "5739": " struck",
  "5740": " Did",
  "5741": " Rabbit",
  "5742": " shoulders",
  "5743": " bunch",
  "5744": " opin",
  "5745": " lines",
  "5746": " frosting",
  "5747": " release",
  "5748": "Goodbye",
  "5749": " decides",
  "5750": " giggling",
  "5751": " broom",
  "5752": " Like",
  "5753": " ourselves",
  "5754": "  ",
  "5755": " web",
  "5756": " pastel",
  "5757": "lled",
  "5758": " stamps",
  "5759": " Pip",
  "5760": " cones",
  "5761": "nes",
  "5762": " emergen",
  "5763": " stair",
  "5764": " stitch",
  "5765": "bbing",
  "5766": " Stop",
  "5767": " Ol",
  "5768": " prunes",
  "5769": " ladybug",
  "5770": " sides",
  "5771": "oed",
  "5772": "George",
  "5773": " grant",
  "5774": " scurried",
  "5775": " strings",
  "5776": " tim",
  "5777": "ais",
  "5778": " marks",
  "5779": " ruler",
  "5780": "Mr",
  "5781": " pears",
  "5782": "Andy",
  "5783": "gers",
  "5784": "Mike",
  "5785": "Teddy",
  "5786": "nesday",
  "5787": "ednesday",
  "5788": " repeated",
  "5789": " drift",
  "5790": " keeps",
  "5791": " claps",
  "5792": " ago",
  "5793": " poking",
  "5794": " Am",
  "5795": "anta",
  "5796": " Big",
  "5797": "ays",
  "5798": "Ye",
  "5799": " crowd",
  "5800": " ruin",
  "5801": " Hop",
  "5802": " prints",
  "5803": "low",
  "5804": "kins",
  "5805": " brushes",
  "5806": " kicking",
  "5807": " stretching",
  "5808": " Thomas",
  "5809": " demanded",
  "5810": "len",
  "5811": " sting",
  "5812": "ody",
  "5813": " neighbors",
  "5814": " mentioned",
  "5815": "ira",
  "5816": "owers",
  "5817": " mast",
  "5818": " touching",
  "5819": " tonight",
  "5820": " protected",
  "5821": " Chirpy",
  "5822": " writes",
  "5823": " sweeties",
  "5824": " Josh",
  "5825": " goodnight",
  "5826": "uesday",
  "5827": " youth",
  "5828": " buckets",
  "5829": " ribbons",
  "5830": "va",
  "5831": "jam",
  "5832": " Wednesday",
  "5833": "uctantly",
  "5834": "tiest",
  "5835": "ashed",
  "5836": " prettiest",
  "5837": " Chloe",
  "5838": " forgi",
  "5839": " vent",
  "5840": " parked",
  "5841": "icky",
  "5842": "exp",
  "5843": " project",
  "5844": " camping",
  "5845": " soaked",
  "5846": "zie",
  "5847": " Tiny",
  "5848": " barely",
  "5849": " horns",
  "5850": " bouncy",
  "5851": "icked",
  "5852": "bies",
  "5853": "riage",
  "5854": "hins",
  "5855": "Bobby",
  "5856": "Ah",
  "5857": " discovering",
  "5858": "Mar",
  "5859": " An",
  "5860": "Pete",
  "5861": " Bir",
  "5862": "Ella",
  "5863": " east",
  "5864": " Sure",
  "5865": "Joey",
  "5866": " twinkling",
  "5867": "Grandpa",
  "5868": " result",
  "5869": " expect",
  "5870": " surface",
  "5871": " sorting",
  "5872": " stole",
  "5873": " dent",
  "5874": " west",
  "5875": " interest",
  "5876": " vowed",
  "5877": " texture",
  "5878": " gazed",
  "5879": " Gr",
  "5880": " purred",
  "5881": " Tuesday",
  "5882": " steep",
  "5883": " guys",
  "5884": " babies",
  "5885": " shock",
  "5886": " movies",
  "5887": " beard",
  "5888": " Carl",
  "5889": " Rob",
  "5890": " cautious",
  "5891": "expected",
  "5892": "zen",
  "5893": " powers",
  "5894": " applauded",
  "5895": " silence",
  "5896": "Fr",
  "5897": "thank",
  "5898": " pebbles",
  "5899": " Bubbles",
  "5900": " entire",
  "5901": " loose",
  "5902": " control",
  "5903": " tickle",
  "5904": " guns",
  "5905": " urged",
  "5906": " dragons",
  "5907": " acted",
  "5908": " 1",
  "5909": " dragged",
  "5910": " unexpected",
  "5911": " luxury",
  "5912": "edding",
  "5913": " catches",
  "5914": "Uh",
  "5915": "ason",
  "5916": "Henry",
  "5917": "ern",
  "5918": " mittens",
  "5919": " muscles",
  "5920": " chewing",
  "5921": " rocking",
  "5922": " flat",
  "5923": " fab",
  "5924": " fabric",
  "5925": " dolphins",
  "5926": " completed",
  "5927": " curtains",
  "5928": " emergency",
  "5929": "Maggie",
  "5930": " blink",
  "5931": " introduced",
  "5932": "une",
  "5933": " direction",
  "5934": "uly",
  "5935": " chips",
  "5936": " honk",
  "5937": " season",
  "5938": " strike",
  "5939": " patience",
  "5940": " importance",
  "5941": "eezing",
  "5942": " reluctantly",
  "5943": " bank",
  "5944": " eight",
  "5945": " slim",
  "5946": "usted",
  "5947": " figured",
  "5948": " highest",
  "5949": " shivered",
  "5950": "Remember",
  "5951": " frozen",
  "5952": " Betty",
  "5953": " solution",
  "5954": " librarian",
  "5955": " contest",
  "5956": " rocked",
  "5957": " achieve",
  "5958": " screaming",
  "5959": " chases",
  "5960": " Zoom",
  "5961": " replac",
  "5962": " pouring",
  "5963": "Rex",
  "5964": " shelves",
  "5965": " wound",
  "5966": " Jamie",
  "5967": " theirs",
  "5968": " crumb",
  "5969": " rubbing",
  "5970": "esome",
  "5971": " ti",
  "5972": " hugging",
  "5973": " drives",
  "5974": " staring",
  "5975": " sorted",
  "5976": " snail",
  "5977": " roaring",
  "5978": "ledge",
  "5979": " include",
  "5980": " planets",
  "5981": " Anne",
  "5982": "Fred",
  "5983": "ateri",
  "5984": " Santa",
  "5985": " materi",
  "5986": " safer",
  "5987": " policeman",
  "5988": "fit",
  "5989": " curly",
  "5990": " situation",
  "5991": " foods",
  "5992": " greet",
  "5993": " awesome",
  "5994": " usual",
  "5995": "vin",
  "5996": " sighs",
  "5997": " knowledge",
  "5998": "itely",
  "5999": "irts",
  "6000": " passing",
  "6001": " shined",
  "6002": " flags",
  "6003": " exha",
  "6004": " dared",
  "6005": " balancing",
  "6006": " plenty",
  "6007": " matched",
  "6008": " towels",
  "6009": " lied",
  "6010": "ults",
  "6011": " homework",
  "6012": "Leo",
  "6013": "though",
  "6014": " outfit",
  "6015": " slimy",
  "6016": " bravery",
  "6017": " truly",
  "6018": " pretends",
  "6019": " Lulu",
  "6020": " Aunt",
  "6021": "avi",
  "6022": " zookeeper",
  "6023": "acob",
  "6024": " cheering",
  "6025": " heel",
  "6026": " Tilly",
  "6027": " wedding",
  "6028": " goals",
  "6029": " rainbows",
  "6030": "jamas",
  "6031": " sausages",
  "6032": "James",
  "6033": "cuse",
  "6034": " Susan",
  "6035": " Hoppy",
  "6036": " threat",
  "6037": " Matt",
  "6038": " accomplish",
  "6039": " patted",
  "6040": " caused",
  "6041": "Danny",
  "6042": " paintings",
  "6043": " reaching",
  "6044": " Claire",
  "6045": " Car",
  "6046": " resting",
  "6047": "Paul",
  "6048": " radishes",
  "6049": " arguing",
  "6050": " packing",
  "6051": "Excuse",
  "6052": "bert",
  "6053": " growling",
  "6054": " blooming",
  "6055": " Always",
  "6056": "Grace",
  "6057": " spraying",
  "6058": " foc",
  "6059": " waiter",
  "6060": " exhausted",
  "6061": "iar",
  "6062": " ge",
  "6063": " struggle",
  "6064": "izzie",
  "6065": "aa",
  "6066": " sweets",
  "6067": "...",
  "6068": " sticking",
  "6069": "ences",
  "6070": "Kitty",
  "6071": " pout",
  "6072": " markers",
  "6073": " motion",
  "6074": " worker",
  "6075": " kneeled",
  "6076": " paddled",
  "6077": " Jessie",
  "6078": " growl",
  "6079": " Lou",
  "6080": " sled",
  "6081": "immer",
  "6082": " suitc",
  "6083": " mane",
  "6084": " For",
  "6085": " snugg",
  "6086": " sway",
  "6087": " startled",
  "6088": " cubes",
  "6089": " Momo",
  "6090": " rescued",
  "6091": " boo",
  "6092": " written",
  "6093": " spike",
  "6094": " dusty",
  "6095": " traveled",
  "6096": " inviting",
  "6097": "Sophie",
  "6098": "hello",
  "6099": " expected",
  "6100": " bead",
  "6101": " slap",
  "6102": " cuts",
  "6103": " cent",
  "6104": " bottles",
  "6105": " matching",
  "6106": " guest",
  "6107": " singer",
  "6108": " flavor",
  "6109": " reveal",
  "6110": " learns",
  "6111": " heav",
  "6112": "lee",
  "6113": " princesses",
  "6114": " creating",
  "6115": " regretted",
  "6116": " fart",
  "6117": "Yeah",
  "6118": " bloomed",
  "6119": " trembling",
  "6120": " replaced",
  "6121": " Yes",
  "6122": " fir",
  "6123": " arrive",
  "6124": " marriage",
  "6125": "you",
  "6126": "pite",
  "6127": "aisies",
  "6128": " recorded",
  "6129": " pencils",
  "6130": "Annie",
  "6131": " included",
  "6132": " lap",
  "6133": " chuck",
  "6134": " observed",
  "6135": " disagree",
  "6136": "njoy",
  "6137": " pots",
  "6138": " daisies",
  "6139": " Linda",
  "6140": " activities",
  "6141": " prayer",
  "6142": " firm",
  "6143": " timer",
  "6144": " pajamas",
  "6145": " roads",
  "6146": "Charlie",
  "6147": " wires",
  "6148": " removed",
  "6149": " darkness",
  "6150": " worries",
  "6151": " uses",
  "6152": " ventured",
  "6153": " countryside",
  "6154": " Mad",
  "6155": " organizing",
  "6156": " stare",
  "6157": " completely",
  "6158": "uzz",
  "6159": " By",
  "6160": " workers",
  "6161": "Mrs",
  "6162": " Ha",
  "6163": " opening",
  "6164": " fairies",
  "6165": " relief",
  "6166": "angled",
  "6167": " wasted",
  "6168": " leap",
  "6169": " reply",
  "6170": " owners",
  "6171": " storekeeper",
  "6172": " Abby",
  "6173": " Bo",
  "6174": " cott",
  "6175": " belly",
  "6176": " Sadly",
  "6177": "vers",
  "6178": " ranger",
  "6179": " fault",
  "6180": "aty",
  "6181": " partic",
  "6182": " Johnson",
  "6183": " unf",
  "6184": " Ju",
  "6185": " quacked",
  "6186": " \n ",
  "6187": " polishing",
  "6188": " leader",
  "6189": " stern",
  "6190": "ora",
  "6191": "iding",
  "6192": "lowly",
  "6193": " becoming",
  "6194": " flames",
  "6195": " lamb",
  "6196": " Jeff",
  "6197": " kites",
  "6198": "ctions",
  "6199": " agrees",
  "6200": " poems",
  "6201": " penguins",
  "6202": "Afterwards",
  "6203": " faced",
  "6204": " Quack",
  "6205": "essie",
  "6206": " Out",
  "6207": " seesaw",
  "6208": " everybody",
  "6209": "However",
  "6210": " Pinky",
  "6211": " folding",
  "6212": " melting",
  "6213": " scales",
  "6214": " squealed",
  "6215": " thro",
  "6216": " healed",
  "6217": " vanish",
  "6218": " Unfortunately",
  "6219": " helmets",
  "6220": " wink",
  "6221": " Luke",
  "6222": " logs",
  "6223": " Both",
  "6224": " Jones",
  "6225": " Jenna",
  "6226": "ords",
  "6227": " crabs",
  "6228": " throat",
  "6229": " Mart",
  "6230": "hell",
  "6231": " Leave",
  "6232": " usually",
  "6233": " opinion",
  "6234": " crumbs",
  "6235": " tractor",
  "6236": " ripe",
  "6237": "opes",
  "6238": " dipped",
  "6239": "lings",
  "6240": " scra",
  "6241": " seems",
  "6242": " twinkle",
  "6243": " lollipops",
  "6244": " ast",
  "6245": " risk",
  "6246": " cash",
  "6247": " Christ",
  "6248": " teaches",
  "6249": " comm",
  "6250": " Bye",
  "6251": " groceries",
  "6252": " Follow",
  "6253": " den",
  "6254": " knights",
  "6255": "ivery",
  "6256": "asm",
  "6257": " provided",
  "6258": " dentist",
  "6259": "Harry",
  "6260": " valued",
  "6261": " polished",
  "6262": " staying",
  "6263": "ids",
  "6264": "elle",
  "6265": " peeking",
  "6266": "aze",
  "6267": " snakes",
  "6268": " Adam",
  "6269": " scru",
  "6270": " interested",
  "6271": " blows",
  "6272": " rubs",
  "6273": " cautiously",
  "6274": " Watch",
  "6275": " Dolly",
  "6276": " cracked",
  "6277": "ophia",
  "6278": " united",
  "6279": " rings",
  "6280": "Alex",
  "6281": "araway",
  "6282": " Put",
  "6283": " faraway",
  "6284": " desert",
  "6285": " Sorry",
  "6286": " winked",
  "6287": " protecting",
  "6288": " misses",
  "6289": " marked",
  "6290": " freed",
  "6291": "Ellie",
  "6292": "Mittens",
  "6293": " younger",
  "6294": " wrist",
  "6295": " wandering",
  "6296": " closes",
  "6297": "mas",
  "6298": " balanced",
  "6299": " chuckled",
  "6300": " fuzzy",
  "6301": " pastries",
  "6302": " listens",
  "6303": " forehead",
  "6304": " single",
  "6305": " signed",
  "6306": " Kayla",
  "6307": "go",
  "6308": " robb",
  "6309": " Hannah",
  "6310": " beads",
  "6311": " particular",
  "6312": " roses",
  "6313": "boo",
  "6314": " boom",
  "6315": " Fox",
  "6316": "Ab",
  "6317": " actions",
  "6318": " directions",
  "6319": " however",
  "6320": " copy",
  "6321": "igi",
  "6322": " Suzie",
  "6323": " Lizzy",
  "6324": " splashes",
  "6325": " cough",
  "6326": " crackers",
  "6327": "rance",
  "6328": "aura",
  "6329": " baker",
  "6330": " naps",
  "6331": " cous",
  "6332": "ppers",
  "6333": " roots",
  "6334": " filling",
  "6335": " yesterday",
  "6336": " snowballs",
  "6337": " restored",
  "6338": " fluttered",
  "6339": " rolls",
  "6340": " delivery",
  "6341": "abel",
  "6342": "arling",
  "6343": " stem",
  "6344": " conn",
  "6345": " swooped",
  "6346": "Bad",
  "6347": "iles",
  "6348": "dies",
  "6349": " gaze",
  "6350": " suitcase",
  "6351": "Unfortunately",
  "6352": " wiggled",
  "6353": " tipt",
  "6354": " Nina",
  "6355": "ilo",
  "6356": "Sandy",
  "6357": " somebody",
  "6358": "ickey",
  "6359": " itchy",
  "6360": " bumpy",
  "6361": "bbly",
  "6362": " refle",
  "6363": " swirl",
  "6364": " slam",
  "6365": " Christmas",
  "6366": " photos",
  "6367": " Y",
  "6368": "Some",
  "6369": "oline",
  "6370": " twin",
  "6371": " pastels",
  "6372": " celebration",
  "6373": " trips",
  "6374": " pedals",
  "6375": " Pipp",
  "6376": "atches",
  "6377": " backed",
  "6378": " tallest",
  "6379": " awake",
  "6380": " Keep",
  "6381": " froze",
  "6382": " cashier",
  "6383": " cause",
  "6384": " nect",
  "6385": " remote",
  "6386": " nectar",
  "6387": " lined",
  "6388": " determination",
  "6389": " darker",
  "6390": "ility",
  "6391": " speaking",
  "6392": " secure",
  "6393": "ormed",
  "6394": " Doggy",
  "6395": " Many",
  "6396": " knees",
  "6397": "Kate",
  "6398": " wow",
  "6399": " Friend",
  "6400": "anes",
  "6401": " piggy",
  "6402": " complaining",
  "6403": " bars",
  "6404": "per",
  "6405": " recording",
  "6406": "Run",
  "6407": " sneaky",
  "6408": " videos",
  "6409": " silent",
  "6410": "May",
  "6411": "oys",
  "6412": " health",
  "6413": " accomplishment",
  "6414": " liqu",
  "6415": " pleasure",
  "6416": " acting",
  "6417": "?\",",
  "6418": " entrance",
  "6419": "—",
  "6420": " ty",
  "6421": " Bird",
  "6422": "Millie",
  "6423": "Bun",
  "6424": " wears",
  "6425": " rockets",
  "6426": " delivered",
  "6427": " miles",
  "6428": " insp",
  "6429": " glee",
  "6430": "esmer",
  "6431": " hi",
  "6432": " coloured",
  "6433": " opp",
  "6434": " Prin",
  "6435": " tricked",
  "6436": " Enjoy",
  "6437": " mesmer",
  "6438": " Being",
  "6439": "sequ",
  "6440": "boat",
  "6441": " cheeks",
  "6442": " Mo",
  "6443": "yond",
  "6444": " beyond",
  "6445": " aff",
  "6446": " afterwards",
  "6447": " noon",
  "6448": " sib",
  "6449": " consequ",
  "6450": "Nina",
  "6451": " stays",
  "6452": " hissed",
  "6453": "cited",
  "6454": " insects",
  "6455": " glasses",
  "6456": "ky",
  "6457": " bowls",
  "6458": "Time",
  "6459": "umm",
  "6460": " joking",
  "6461": "Rose",
  "6462": " Nothing",
  "6463": " tickled",
  "6464": " sobbed",
  "6465": " farther",
  "6466": "Toby",
  "6467": "Fine",
  "6468": " colored",
  "6469": " burst",
  "6470": "affes",
  "6471": " scaring",
  "6472": " stolen",
  "6473": " attack",
  "6474": " sandcastles",
  "6475": " sense",
  "6476": " tricky",
  "6477": " rule",
  "6478": " masks",
  "6479": "arter",
  "6480": "Sad",
  "6481": " covers",
  "6482": "Bl",
  "6483": "iki",
  "6484": " deal",
  "6485": " instrum",
  "6486": " giraffes",
  "6487": " calmed",
  "6488": " handful",
  "6489": "?'",
  "6490": " talented",
  "6491": " Sparky",
  "6492": " pause",
  "6493": " tangled",
  "6494": " indeed",
  "6495": "aren",
  "6496": " adding",
  "6497": " smarter",
  "6498": " scarves",
  "6499": " candies",
  "6500": "ths",
  "6501": " Jessica",
  "6502": " shirts",
  "6503": " lung",
  "6504": " achieved",
  "6505": " choices",
  "6506": "Polly",
  "6507": " consequences",
  "6508": " liquid",
  "6509": "ossible",
  "6510": " yourselves",
  "6511": "rious",
  "6512": "Lilly",
  "6513": " leading",
  "6514": " bumps",
  "6515": " behavi",
  "6516": " reads",
  "6517": " batteries",
  "6518": "igers",
  "6519": "choo",
  "6520": " hesitated",
  "6521": " impossible",
  "6522": " badge",
  "6523": "ept",
  "6524": " Tara",
  "6525": " Mon",
  "6526": " mi",
  "6527": " Two",
  "6528": " paddle",
  "6529": " mixture",
  "6530": " explorers",
  "6531": " Mel",
  "6532": "iled",
  "6533": " magnets",
  "6534": " darling",
  "6535": "lling",
  "6536": " ‘",
  "6537": "ouch",
  "6538": " clowns",
  "6539": " kicks",
  "6540": "Shh",
  "6541": " recommended",
  "6542": " Get",
  "6543": "ana",
  "6544": " weeping",
  "6545": " gracefully",
  "6546": "ners",
  "6547": " experien",
  "6548": " Lizzie",
  "6549": " Cindy",
  "6550": " seashell",
  "6551": " Jon",
  "6552": " seeker",
  "6553": " bakery",
  "6554": " firefighters",
  "6555": "anging",
  "6556": " Julia",
  "6557": " salty",
  "6558": "vest",
  "6559": "brush",
  "6560": " improved",
  "6561": "rig",
  "6562": "Whe",
  "6563": "Those",
  "6564": " swept",
  "6565": "atul",
  "6566": "coat",
  "6567": "Milly",
  "6568": " deserve",
  "6569": " stroked",
  "6570": "uggles",
  "6571": " Pandy",
  "6572": " wipes",
  "6573": " flapping",
  "6574": " beginning",
  "6575": " mushrooms",
  "6576": " complained",
  "6577": " Jacob",
  "6578": " El",
  "6579": "urry",
  "6580": "yan",
  "6581": " hider",
  "6582": "Ru",
  "6583": "obody",
  "6584": "itches",
  "6585": " Sque",
  "6586": " steer",
  "6587": " knocks",
  "6588": " Squ",
  "6589": " Mickey",
  "6590": " cust",
  "6591": " thorn",
  "6592": " seven",
  "6593": " cans",
  "6594": " Happy",
  "6595": " teased",
  "6596": " objects",
  "6597": " parties",
  "6598": "Days",
  "6599": " travelled",
  "6600": " Larry",
  "6601": " third",
  "6602": " Gigi",
  "6603": " hearing",
  "6604": " Princess",
  "6605": " basement",
  "6606": " tigers",
  "6607": " cupcakes",
  "6608": " horiz",
  "6609": " click",
  "6610": " snuck",
  "6611": " heading",
  "6612": " fever",
  "6613": " seconds",
  "6614": " dots",
  "6615": " raincoat",
  "6616": "tle",
  "6617": " siblings",
  "6618": " horizon",
  "6619": " Snuggles",
  "6620": "elia",
  "6621": " smiley",
  "6622": " performance",
  "6623": " custom",
  "6624": " artist",
  "6625": " Pl",
  "6626": " hallway",
  "6627": "no",
  "6628": " marker",
  "6629": " beam",
  "6630": " snatched",
  "6631": " lighter",
  "6632": " yells",
  "6633": " jackets",
  "6634": " fluttering",
  "6635": " drums",
  "6636": "indr",
  "6637": " Lena",
  "6638": "step",
  "6639": "ans",
  "6640": "pare",
  "6641": " Luckily",
  "6642": " ruining",
  "6643": " gems",
  "6644": " bedtime",
  "6645": "igning",
  "6646": " raindr",
  "6647": " wee",
  "6648": " neither",
  "6649": " concer",
  "6650": " buying",
  "6651": "rigued",
  "6652": " puppies",
  "6653": " lett",
  "6654": " Slowly",
  "6655": "dri",
  "6656": " Water",
  "6657": " paying",
  "6658": " Without",
  "6659": " scrubbed",
  "6660": " families",
  "6661": " celebrating",
  "6662": " dollhouse",
  "6663": " annoy",
  "6664": " creamy",
  "6665": " lettuce",
  "6666": "band",
  "6667": " among",
  "6668": "umbling",
  "6669": " peacefully",
  "6670": " scratches",
  "6671": " rivers",
  "6672": " wrapping",
  "6673": " widened",
  "6674": " drifted",
  "6675": "Bobo",
  "6676": " wadd",
  "6677": " rumble",
  "6678": " tasks",
  "6679": "ivity",
  "6680": "atur",
  "6681": "Tina",
  "6682": "ades",
  "6683": " treehouse",
  "6684": " hides",
  "6685": " wins",
  "6686": " repa",
  "6687": " behaved",
  "6688": "cers",
  "6689": " rusty",
  "6690": "alph",
  "6691": " players",
  "6692": " Everybody",
  "6693": " Buzzy",
  "6694": " lun",
  "6695": " Jazz",
  "6696": "Dan",
  "6697": "immering",
  "6698": "ael",
  "6699": " cuddly",
  "6700": "fall",
  "6701": " uns",
  "6702": " fact",
  "6703": "ounce",
  "6704": " rewarded",
  "6705": " arrows",
  "6706": " willing",
  "6707": " lower",
  "6708": " needles",
  "6709": " source",
  "6710": "An",
  "6711": " shrinking",
  "6712": " creativity",
  "6713": " temper",
  "6714": " losing",
  "6715": " cor",
  "6716": " ech",
  "6717": " repaired",
  "6718": " passen",
  "6719": " fears",
  "6720": "iece",
  "6721": " grandpare",
  "6722": " including",
  "6723": " choo",
  "6724": " tiptoed",
  "6725": "itched",
  "6726": "Tr",
  "6727": " creations",
  "6728": " tapped",
  "6729": " Abbie",
  "6730": " grassy",
  "6731": " chefs",
  "6732": "ongr",
  "6733": " Goodbye",
  "6734": " def",
  "6735": "Clara",
  "6736": "ded",
  "6737": " minerals",
  "6738": "jo",
  "6739": " separated",
  "6740": " Emmy",
  "6741": " sprinkled",
  "6742": " rising",
  "6743": " imagining",
  "6744": " granted",
  "6745": " June",
  "6746": "ichael",
  "6747": " chop",
  "6748": " gross",
  "6749": " aud",
  "6750": " Rock",
  "6751": " tempt",
  "6752": "hew",
  "6753": " aren",
  "6754": "Great",
  "6755": " Laura",
  "6756": " Sophia",
  "6757": " swimsuit",
  "6758": "ongratul",
  "6759": "imon",
  "6760": " Zip",
  "6761": " tiss",
  "6762": " pans",
  "6763": " limes",
  "6764": "hog",
  "6765": " stomped",
  "6766": " screwdri",
  "6767": " coup",
  "6768": " grabbing",
  "6769": " Po",
  "6770": " pouted",
  "6771": " backwards",
  "6772": " spong",
  "6773": "itude",
  "6774": " decorating",
  "6775": " damage",
  "6776": "ishy",
  "6777": " hesitant",
  "6778": " printing",
  "6779": " earn",
  "6780": "Have",
  "6781": " peppers",
  "6782": " todd",
  "6783": " stung",
  "6784": " squares",
  "6785": " unpacked",
  "6786": "ments",
  "6787": "cl",
  "6788": " tramp",
  "6789": "ntil",
  "6790": " slower",
  "6791": " diving",
  "6792": " cowb",
  "6793": " planning",
  "6794": " beloved",
  "6795": " onions",
  "6796": "Pat",
  "6797": " materials",
  "6798": " heavier",
  "6799": " chip",
  "6800": " Olive",
  "6801": " Jay",
  "6802": " raindrops",
  "6803": " growls",
  "6804": " wrink",
  "6805": " mer",
  "6806": " pointy",
  "6807": " snowmen",
  "6808": " Remember",
  "6809": "cope",
  "6810": " surroundings",
  "6811": " promises",
  "6812": " screwdriver",
  "6813": " avoid",
  "6814": "Wh",
  "6815": "Meow",
  "6816": "Yummy",
  "6817": " recipe",
  "6818": " audience",
  "6819": " sailboat",
  "6820": " cousin",
  "6821": " rustling",
  "6822": " forgiven",
  "6823": " neighbours",
  "6824": " blocking",
  "6825": "Que",
  "6826": " center",
  "6827": "kend",
  "6828": " slices",
  "6829": " gobbled",
  "6830": "eds",
  "6831": " wiping",
  "6832": " weekend",
  "6833": " temperature",
  "6834": " touc",
  "6835": " trampoline",
  "6836": " hedgehog",
  "6837": "Queen",
  "6838": "int",
  "6839": " refu",
  "6840": " helpers",
  "6841": " arr",
  "6842": " wobbled",
  "6843": " windy",
  "6844": " rip",
  "6845": "pr",
  "6846": "Katie",
  "6847": "For",
  "6848": "yes",
  "6849": " couple",
  "6850": "Bill",
  "6851": " stool",
  "6852": " discussed",
  "6853": " Pam",
  "6854": "ae",
  "6855": "ushing",
  "6856": "sty",
  "6857": "Fo",
  "6858": " designed",
  "6859": " ornaments",
  "6860": " Earth",
  "6861": " dreamt",
  "6862": "itted",
  "6863": "Oops",
  "6864": " noses",
  "6865": " corners",
  "6866": " Stella",
  "6867": " Els",
  "6868": "child",
  "6869": " slammed",
  "6870": " pecked",
  "6871": "unched",
  "6872": "uzzy",
  "6873": "eal",
  "6874": " swans",
  "6875": " afford",
  "6876": "iley",
  "6877": " hus",
  "6878": "Ew",
  "6879": "Roar",
  "6880": " Robby",
  "6881": " feast",
  "6882": " sports",
  "6883": " hitting",
  "6884": "oey",
  "6885": " age",
  "6886": "!”.",
  "6887": " Dr",
  "6888": "ably",
  "6889": " streets",
  "6890": " wag",
  "6891": " tissue",
  "6892": " dads",
  "6893": " ache",
  "6894": " aside",
  "6895": "ccoon",
  "6896": " Mira",
  "6897": " sponge",
  "6898": " raccoon",
  "6899": " stain",
  "6900": " requested",
  "6901": " meals",
  "6902": " forks",
  "6903": " curiously",
  "6904": " sunflowers",
  "6905": " reflection",
  "6906": " snowfl",
  "6907": "arrow",
  "6908": " warnings",
  "6909": " tails",
  "6910": " Nick",
  "6911": "Baby",
  "6912": " dances",
  "6913": " prett",
  "6914": " plans",
  "6915": " bows",
  "6916": "ido",
  "6917": " vanilla",
  "6918": "Jul",
  "6919": " shaped",
  "6920": " familiar",
  "6921": " Binky",
  "6922": " sparks",
  "6923": " det",
  "6924": " Robert",
  "6925": "cky",
  "6926": "--",
  "6927": " leaning",
  "6928": " gri",
  "6929": " dollars",
  "6930": "Fin",
  "6931": " remembering",
  "6932": " coloring",
  "6933": " adult",
  "6934": " breathed",
  "6935": " intrigued",
  "6936": " greeted",
  "6937": " sale",
  "6938": " screws",
  "6939": "using",
  "6940": " grandchild",
  "6941": "ne",
  "6942": "ition",
  "6943": " duckling",
  "6944": " spreading",
  "6945": " forgets",
  "6946": "osen",
  "6947": " gasp",
  "6948": " chosen",
  "6949": " astron",
  "6950": " Sc",
  "6951": " thrown",
  "6952": " shops",
  "6953": "Maria",
  "6954": " prettier",
  "6955": " Those",
  "6956": " Bee",
  "6957": " twice",
  "6958": " praying",
  "6959": "Pe",
  "6960": " Ryan",
  "6961": " tunnels",
  "6962": "Surpr",
  "6963": " Granny",
  "6964": "aker",
  "6965": " hour",
  "6966": " potion",
  "6967": " enthusi",
  "6968": " Tess",
  "6969": "llen",
  "6970": " touches",
  "6971": " astronaut",
  "6972": " swords",
  "6973": " enthusiasm",
  "6974": " Queen",
  "6975": " husband",
  "6976": "ertain",
  "6977": "arac",
  "6978": "Blue",
  "6979": " sailors",
  "6980": " gardener",
  "6981": "otten",
  "6982": "endy",
  "6983": " moo",
  "6984": "Woof",
  "6985": " zipping",
  "6986": " hops",
  "6987": " spikes",
  "6988": " superheroes",
  "6989": " corre",
  "6990": " reason",
  "6991": "Boo",
  "6992": " wishing",
  "6993": " magician",
  "6994": " spoonful",
  "6995": " grandparents",
  "6996": " daring",
  "6997": "mallow",
  "6998": " least",
  "6999": " Bluey",
  "7000": "arshmallow",
  "7001": " skunk",
  "7002": " reass",
  "7003": " Thanks",
  "7004": " Our",
  "7005": " changing",
  "7006": " dod",
  "7007": " Nobody",
  "7008": " borrowed",
  "7009": " scamp",
  "7010": " counts",
  "7011": " pens",
  "7012": " flight",
  "7013": " forgetting",
  "7014": " Chris",
  "7015": " rotten",
  "7016": " bodies",
  "7017": " encourag",
  "7018": " guests",
  "7019": " flavors",
  "7020": " 10",
  "7021": " hopeful",
  "7022": "ently",
  "7023": " neare",
  "7024": " Abi",
  "7025": " woof",
  "7026": " Finn",
  "7027": "ounced",
  "7028": " snuggle",
  "7029": " mesmerized",
  "7030": " sending",
  "7031": " Friends",
  "7032": "fly",
  "7033": " heroes",
  "7034": "aracter",
  "7035": " character",
  "7036": " muscle",
  "7037": "stick",
  "7038": " Rover",
  "7039": "oni",
  "7040": " Milo",
  "7041": " buzzed",
  "7042": " Squeaky",
  "7043": " seaw",
  "7044": "Frank",
  "7045": " neatly",
  "7046": " grows",
  "7047": "Our",
  "7048": " Mikey",
  "7049": "the",
  "7050": "Whee",
  "7051": " Cra",
  "7052": "wk",
  "7053": " wraps",
  "7054": "Ruby",
  "7055": " steady",
  "7056": " poss",
  "7057": " nibb",
  "7058": " feeding",
  "7059": " Until",
  "7060": " marshmallow",
  "7061": " Listen",
  "7062": " handsome",
  "7063": " cond",
  "7064": " mints",
  "7065": "irrel",
  "7066": " delivering",
  "7067": " nine",
  "7068": " oh",
  "7069": "antha",
  "7070": " dived",
  "7071": "bba",
  "7072": " politely",
  "7073": " zebras",
  "7074": "Miss",
  "7075": " onward",
  "7076": " alien",
  "7077": " suffering",
  "7078": " napkins",
  "7079": " warmer",
  "7080": "armer",
  "7081": "Tw",
  "7082": "years",
  "7083": " sneezing",
  "7084": " honked",
  "7085": " baths",
  "7086": "opsy",
  "7087": " plain",
  "7088": " defe",
  "7089": " plucked",
  "7090": " crashing",
  "7091": "Tweety",
  "7092": " matters",
  "7093": " embarrass",
  "7094": " poster",
  "7095": "ection",
  "7096": "meal",
  "7097": " lifts",
  "7098": "By",
  "7099": " refreshing",
  "7100": " unsure",
  "7101": " seaweed",
  "7102": " lungs",
  "7103": " Birthday",
  "7104": " students",
  "7105": " increased",
  "7106": " Judy",
  "7107": " stands",
  "7108": " joining",
  "7109": " crew",
  "7110": " toddler",
  "7111": " Martha",
  "7112": " oatmeal",
  "7113": " Ex",
  "7114": " scen",
  "7115": "allowed",
  "7116": " proper",
  "7117": " preparing",
  "7118": " swallowed",
  "7119": " dip",
  "7120": " thud",
  "7121": " glued",
  "7122": " express",
  "7123": " whispers",
  "7124": " respond",
  "7125": "aster",
  "7126": " watering",
  "7127": " amount",
  "7128": " ropes",
  "7129": " die",
  "7130": " Star",
  "7131": "Su",
  "7132": " toaster",
  "7133": " performed",
  "7134": " starfish",
  "7135": " trembled",
  "7136": " leads",
  "7137": " Hoot",
  "7138": " presses",
  "7139": " wobbly",
  "7140": " triangles",
  "7141": "Sadly",
  "7142": " hawk",
  "7143": " lessons",
  "7144": " cushions",
  "7145": " biting",
  "7146": "while",
  "7147": " postman",
  "7148": " geese",
  "7149": " pops",
  "7150": " dancers",
  "7151": "Nemo",
  "7152": " talks",
  "7153": " sniffs",
  "7154": " scraped",
  "7155": " resisted",
  "7156": " puff",
  "7157": " focused",
  "7158": " merry",
  "7159": "Back",
  "7160": " panicked",
  "7161": " bully",
  "7162": " adults",
  "7163": " confl",
  "7164": " rushing",
  "7165": " necklaces",
  "7166": " freedom",
  "7167": " Maya",
  "7168": "vant",
  "7169": " puppet",
  "7170": " flas",
  "7171": " softer",
  "7172": " slips",
  "7173": " waddled",
  "7174": " firmly",
  "7175": " Kiki",
  "7176": " trot",
  "7177": "iona",
  "7178": "Ducky",
  "7179": "ados",
  "7180": " joyful",
  "7181": " firefly",
  "7182": " encouraging",
  "7183": " tested",
  "7184": " wrigg",
  "7185": " dropping",
  "7186": " drawers",
  "7187": " Sun",
  "7188": " frowning",
  "7189": "onna",
  "7190": "Br",
  "7191": " tables",
  "7192": " waterfall",
  "7193": " worn",
  "7194": " wiggle",
  "7195": "fia",
  "7196": " Zoey",
  "7197": " ev",
  "7198": " nervously",
  "7199": " blast",
  "7200": " faded",
  "7201": "rey",
  "7202": " lifting",
  "7203": "bird",
  "7204": " scampered",
  "7205": " rout",
  "7206": " humans",
  "7207": " drivers",
  "7208": "ippy",
  "7209": "Very",
  "7210": "lets",
  "7211": " spat",
  "7212": " explo",
  "7213": "cake",
  "7214": " Only",
  "7215": "Mimi",
  "7216": " appreciation",
  "7217": " pours",
  "7218": " robber",
  "7219": " firefighter",
  "7220": " drawn",
  "7221": " squeak",
  "7222": " thoughts",
  "7223": " respected",
  "7224": " quarreling",
  "7225": " pennies",
  "7226": " pigeons",
  "7227": " twinkled",
  "7228": " throughout",
  "7229": " leapt",
  "7230": "retty",
  "7231": " occ",
  "7232": " Along",
  "7233": "Bet",
  "7234": " stacked",
  "7235": " Love",
  "7236": "but",
  "7237": " dresser",
  "7238": "rrr",
  "7239": " Frosty",
  "7240": " scient",
  "7241": " fits",
  "7242": " coc",
  "7243": " Janie",
  "7244": " Stay",
  "7245": " scientist",
  "7246": " master",
  "7247": "anwhile",
  "7248": "roken",
  "7249": "now",
  "7250": "Listen",
  "7251": "ears",
  "7252": " bravest",
  "7253": " avocados",
  "7254": " strongest",
  "7255": " overcome",
  "7256": " months",
  "7257": " elf",
  "7258": " polar",
  "7259": " playtime",
  "7260": " san",
  "7261": " notes",
  "7262": " Baa",
  "7263": " gonna",
  "7264": " Todd",
  "7265": " Ash",
  "7266": "fire",
  "7267": " nur",
  "7268": " certain",
  "7269": " manag",
  "7270": " Take",
  "7271": " wept",
  "7272": " Meg",
  "7273": "Tony",
  "7274": " nood",
  "7275": "Mine",
  "7276": " spins",
  "7277": " scored",
  "7278": " munch",
  "7279": " echoed",
  "7280": " colder",
  "7281": "eel",
  "7282": "bage",
  "7283": " convers",
  "7284": " cosy",
  "7285": " wakes",
  "7286": " Squirrel",
  "7287": " Marie",
  "7288": " garbage",
  "7289": " playroom",
  "7290": " designs",
  "7291": " performing",
  "7292": " Frog",
  "7293": "plash",
  "7294": "eezes",
  "7295": "urious",
  "7296": " peck",
  "7297": " sank",
  "7298": " prob",
  "7299": " flown",
  "7300": " Sadie",
  "7301": " tricycle",
  "7302": "ca",
  "7303": " sweetest",
  "7304": " Fido",
  "7305": " probably",
  "7306": " prove",
  "7307": " forgiving",
  "7308": " marshmallows",
  "7309": " gest",
  "7310": " behaving",
  "7311": "cher",
  "7312": "Like",
  "7313": "iment",
  "7314": " pumpkins",
  "7315": "oke",
  "7316": " Jacky",
  "7317": "rying",
  "7318": " guide",
  "7319": " explorer",
  "7320": " Bessie",
  "7321": "please",
  "7322": " squeezing",
  "7323": " robots",
  "7324": " sadd",
  "7325": " tossed",
  "7326": " blinking",
  "7327": " Quick",
  "7328": "bbling",
  "7329": " causing",
  "7330": "undred",
  "7331": "...\"",
  "7332": " bells",
  "7333": "broken",
  "7334": " shown",
  "7335": "Kim",
  "7336": " cobwebs",
  "7337": "espite",
  "7338": "ammy",
  "7339": " squishy",
  "7340": " Che",
  "7341": " spices",
  "7342": " haird",
  "7343": "Mad",
  "7344": " passengers",
  "7345": " Fire",
  "7346": " craft",
  "7347": " congratul",
  "7348": "fus",
  "7349": " ties",
  "7350": " tighter",
  "7351": " healing",
  "7352": " Zara",
  "7353": " mate",
  "7354": " angels",
  "7355": "?!\"",
  "7356": " yielded",
  "7357": "ading",
  "7358": " reversed",
  "7359": "ilda",
  "7360": " pound",
  "7361": "David",
  "7362": "Follow",
  "7363": " aimed",
  "7364": " napping",
  "7365": " Farmer",
  "7366": "Quick",
  "7367": "Even",
  "7368": " giggles",
  "7369": "upt",
  "7370": " pays",
  "7371": " nearly",
  "7372": " Owl",
  "7373": " offic",
  "7374": "During",
  "7375": " unw",
  "7376": " distract",
  "7377": " kittens",
  "7378": " instruments",
  "7379": " wider",
  "7380": " Mouse",
  "7381": " reun",
  "7382": "mates",
  "7383": "aying",
  "7384": "alloween",
  "7385": " sewing",
  "7386": "ilted",
  "7387": " nuzz",
  "7388": " doorway",
  "7389": " conflict",
  "7390": " clues",
  "7391": " appreciated",
  "7392": " Under",
  "7393": " paintbrush",
  "7394": " inj",
  "7395": "found",
  "7396": " brushing",
  "7397": " Simon",
  "7398": "Watch",
  "7399": " coug",
  "7400": " shoo",
  "7401": " 2",
  "7402": " grandd",
  "7403": " action",
  "7404": " yum",
  "7405": " loading",
  "7406": " ease",
  "7407": " passports",
  "7408": " bru",
  "7409": "ancy",
  "7410": " cottage",
  "7411": "onies",
  "7412": "Alright",
  "7413": " paths",
  "7414": " Jackie",
  "7415": " Halloween",
  "7416": " heartbroken",
  "7417": " merma",
  "7418": " blocked",
  "7419": " ais",
  "7420": " laying",
  "7421": " Mabel",
  "7422": " slipping",
  "7423": "Jerry",
  "7424": " Li",
  "7425": "ino",
  "7426": " sweep",
  "7427": " results",
  "7428": " repeating",
  "7429": " belts",
  "7430": " anger",
  "7431": " pins",
  "7432": " figures",
  "7433": " bits",
  "7434": "isc",
  "7435": " evil",
  "7436": "antastic",
  "7437": " soaking",
  "7438": " Tuna",
  "7439": "idey",
  "7440": " mailed",
  "7441": " within",
  "7442": "asty",
  "7443": " twisty",
  "7444": " twisting",
  "7445": " Well",
  "7446": " suffered",
  "7447": " stroll",
  "7448": " Patch",
  "7449": " tuck",
  "7450": " connected",
  "7451": " Wendy",
  "7452": " puzzled",
  "7453": "Poppy",
  "7454": " shovels",
  "7455": " Ali",
  "7456": " noodles",
  "7457": " damaged",
  "7458": " buses",
  "7459": " accomplished",
  "7460": " und",
  "7461": " crossing",
  "7462": " hundred",
  "7463": "ighting",
  "7464": " breathing",
  "7465": " Michael",
  "7466": " sever",
  "7467": " licking",
  "7468": " behavior",
  "7469": " roars",
  "7470": " several",
  "7471": " tying",
  "7472": " shrug",
  "7473": " responsib",
  "7474": " bracelets",
  "7475": " surrendered",
  "7476": " surfing",
  "7477": " risks",
  "7478": " Ralph",
  "7479": " fleas",
  "7480": " finishing",
  "7481": " despite",
  "7482": " Amelia",
  "7483": " toward",
  "7484": "Ted",
  "7485": " sweat",
  "7486": " encount",
  "7487": " lending",
  "7488": "da",
  "7489": "anie",
  "7490": " streamers",
  "7491": " hairdress",
  "7492": " humming",
  "7493": " defin",
  "7494": "byes",
  "7495": "Vroom",
  "7496": "lves",
  "7497": " supported",
  "7498": " shady",
  "7499": " oysters",
  "7500": " quieter",
  "7501": " cleaner",
  "7502": " awoke",
  "7503": "Abigail",
  "7504": "Whenever",
  "7505": " whose",
  "7506": " luckily",
  "7507": " goodbyes",
  "7508": " Robbie",
  "7509": " Bubba",
  "7510": " ignoring",
  "7511": " Ray",
  "7512": "Steve",
  "7513": " stitches",
  "7514": " rainy",
  "7515": "Surprise",
  "7516": "Take",
  "7517": " tablet",
  "7518": " rather",
  "7519": " Honey",
  "7520": "isions",
  "7521": " ponies",
  "7522": " edges",
  "7523": " cuddles",
  "7524": " Maddie",
  "7525": " Flopsy",
  "7526": "unity",
  "7527": "dding",
  "7528": " fantastic",
  "7529": "ecca",
  "7530": "erk",
  "7531": " slither",
  "7532": " frowns",
  "7533": " cloudy",
  "7534": "ening",
  "7535": " handing",
  "7536": " snowflakes",
  "7537": " final",
  "7538": "ppies",
  "7539": " sped",
  "7540": " drown",
  "7541": "agic",
  "7542": " hairdresser",
  "7543": " elbow",
  "7544": " cotton",
  "7545": " thorns",
  "7546": " Holly",
  "7547": " definitely",
  "7548": " Birdy",
  "7549": " rains",
  "7550": " coral",
  "7551": "iel",
  "7552": " gesture",
  "7553": " surv",
  "7554": " smallest",
  "7555": " kings",
  "7556": " wisely",
  "7557": " sy",
  "7558": " reminding",
  "7559": " Fuzzy",
  "7560": "crow",
  "7561": " battle",
  "7562": " Because",
  "7563": " correctly",
  "7564": " Green",
  "7565": " vines",
  "7566": " driveway",
  "7567": " decisions",
  "7568": " Up",
  "7569": " sou",
  "7570": "onnie",
  "7571": "athy",
  "7572": " peeled",
  "7573": " newfound",
  "7574": " squeaked",
  "7575": "whe",
  "7576": "Hannah",
  "7577": " chopped",
  "7578": " sharks",
  "7579": " student",
  "7580": " prick",
  "7581": " snort",
  "7582": " warri",
  "7583": " grandson",
  "7584": " symbols",
  "7585": " weeds",
  "7586": " simply",
  "7587": " fishes",
  "7588": "hil",
  "7589": " X",
  "7590": "cent",
  "7591": "True",
  "7592": " bandages",
  "7593": "abby",
  "7594": " granddaughter",
  "7595": " wobble",
  "7596": " Karen",
  "7597": "onse",
  "7598": " response",
  "7599": " nasty",
  "7600": " except",
  "7601": " exercises",
  "7602": "steps",
  "7603": " stopping",
  "7604": " Freddie",
  "7605": " tar",
  "7606": " occas",
  "7607": "Adam",
  "7608": " banged",
  "7609": " afar",
  "7610": " Rocky",
  "7611": "arlings",
  "7612": "Beep",
  "7613": " ni",
  "7614": " inspired",
  "7615": " darlings",
  "7616": "father",
  "7617": " travels",
  "7618": " tipped",
  "7619": " disturbing",
  "7620": " masterp",
  "7621": " fills",
  "7622": " lent",
  "7623": " flipped",
  "7624": " footsteps",
  "7625": "elie",
  "7626": "worm",
  "7627": " pedaled",
  "7628": "line",
  "7629": " birdhouse",
  "7630": " windowsill",
  "7631": " spits",
  "7632": " purr",
  "7633": " travelling",
  "7634": " Pippin",
  "7635": " ships",
  "7636": " presented",
  "7637": " convin",
  "7638": " scarecrow",
  "7639": " Although",
  "7640": "sol",
  "7641": "Jamie",
  "7642": " address",
  "7643": " punishment",
  "7644": " planting",
  "7645": "citedly",
  "7646": " apologised",
  "7647": "mered",
  "7648": " chocolates",
  "7649": "Thomas",
  "7650": " antic",
  "7651": "eeling",
  "7652": " forests",
  "7653": " Welcome",
  "7654": " Ruth",
  "7655": " surfboard",
  "7656": "ms",
  "7657": " congratulated",
  "7658": "ddie",
  "7659": " Im",
  "7660": " arranged",
  "7661": " reassured",
  "7662": " believing",
  "7663": " Megan",
  "7664": " trotted",
  "7665": " reunited",
  "7666": " nodding",
  "7667": " encouragement",
  "7668": " cheers",
  "7669": " lies",
  "7670": " images",
  "7671": " poppies",
  "7672": " reapp",
  "7673": " campfire",
  "7674": "iza",
  "7675": " suits",
  "7676": " business",
  "7677": "Since",
  "7678": " target",
  "7679": " clerk",
  "7680": " Spidey",
  "7681": "ooky",
  "7682": " sails",
  "7683": " marve",
  "7684": " magnif",
  "7685": " Jojo",
  "7686": "perate",
  "7687": "issa",
  "7688": "utter",
  "7689": " officers",
  "7690": "manda",
  "7691": " terrified",
  "7692": " backpacks",
  "7693": "Josh",
  "7694": " grip",
  "7695": " Gina",
  "7696": " covering",
  "7697": " yel",
  "7698": " knots",
  "7699": " focus",
  "7700": " Ang",
  "7701": " activity",
  "7702": "inkle",
  "7703": " yelped",
  "7704": " wrinkled",
  "7705": " surprising",
  "7706": " smelling",
  "7707": " expert",
  "7708": " masterpiece",
  "7709": " mood",
  "7710": " dep",
  "7711": " Fighting",
  "7712": "otte",
  "7713": "ris",
  "7714": " concert",
  "7715": " changes",
  "7716": " spills",
  "7717": " chilly",
  "7718": "Bunny",
  "7719": " speeding",
  "7720": "ider",
  "7721": " testing",
  "7722": " Snowman",
  "7723": " tasting",
  "7724": " sniffing",
  "7725": " pleaded",
  "7726": " braver",
  "7727": "artled",
  "7728": " gears",
  "7729": " delayed",
  "7730": " comforting",
  "7731": " Lia",
  "7732": " Okay",
  "7733": " calmly",
  "7734": "we",
  "7735": "ats",
  "7736": "acle",
  "7737": "asha",
  "7738": "acles",
  "7739": " labels",
  "7740": "arlotte",
  "7741": "Jess",
  "7742": " mermaid",
  "7743": " suggestion",
  "7744": "Penny",
  "7745": "Mat",
  "7746": " aware",
  "7747": " Rain",
  "7748": " Any",
  "7749": " discussing",
  "7750": " stumble",
  "7751": "Mira",
  "7752": " spies",
  "7753": " jars",
  "7754": " mischie",
  "7755": " belongings",
  "7756": " worrying",
  "7757": " magazines",
  "7758": " bothering",
  "7759": "flies",
  "7760": " crowns",
  "7761": " artwork",
  "7762": " understands",
  "7763": " mischievous",
  "7764": " displayed",
  "7765": " although",
  "7766": " Louise",
  "7767": "ails",
  "7768": "Chloe",
  "7769": " puck",
  "7770": " efforts",
  "7771": " admiration",
  "7772": " Try",
  "7773": "screen",
  "7774": " burying",
  "7775": " height",
  "7776": " foxes",
  "7777": "emma",
  "7778": " unfortunately",
  "7779": "pen",
  "7780": " sav",
  "7781": " refuse",
  "7782": " seller",
  "7783": " hoo",
  "7784": " baskets",
  "7785": " toolbox",
  "7786": "rier",
  "7787": "ighing",
  "7788": " buddy",
  "7789": " bitten",
  "7790": " experienced",
  "7791": " Ally",
  "7792": " decl",
  "7793": "inted",
  "7794": " que",
  "7795": " bless",
  "7796": "vroom",
  "7797": " dragonfly",
  "7798": " Davey",
  "7799": " vehicles",
  "7800": "wise",
  "7801": "what",
  "7802": "bell",
  "7803": " packages",
  "7804": " solving",
  "7805": " disc",
  "7806": " dump",
  "7807": "ugging",
  "7808": "ibbit",
  "7809": " pandas",
  "7810": " Wally",
  "7811": " annoyed",
  "7812": "mbers",
  "7813": "ipes",
  "7814": "aturday",
  "7815": " tumbled",
  "7816": " momma",
  "7817": " members",
  "7818": " seashells",
  "7819": " fires",
  "7820": " warmly",
  "7821": " posit",
  "7822": " wealth",
  "7823": " nibbled",
  "7824": " Saturday",
  "7825": " sunscreen",
  "7826": " Sofia",
  "7827": " Wil",
  "7828": "aint",
  "7829": " peas",
  "7830": " treated",
  "7831": " Eva",
  "7832": "Beth",
  "7833": " troubles",
  "7834": " squaw",
  "7835": " rotting",
  "7836": "Ke",
  "7837": " scent",
  "7838": " material",
  "7839": "Meanwhile",
  "7840": " Froggy",
  "7841": "Any",
  "7842": " stomp",
  "7843": " gazing",
  "7844": " conqu",
  "7845": " insisting",
  "7846": " coach",
  "7847": " Katy",
  "7848": " untied",
  "7849": "Rachel",
  "7850": "Dear",
  "7851": " prayers",
  "7852": " diso",
  "7853": " environ",
  "7854": " Other",
  "7855": " parted",
  "7856": " conversation",
  "7857": "Quack",
  "7858": " Dory",
  "7859": "aver",
  "7860": "Joy",
  "7861": "Get",
  "7862": " collap",
  "7863": " encountered",
  "7864": " Pen",
  "7865": " loops",
  "7866": " joins",
  "7867": " sewed",
  "7868": " races",
  "7869": " teachers",
  "7870": " sill",
  "7871": " environment",
  "7872": " scurrying",
  "7873": "attered",
  "7874": " whispering",
  "7875": " Samantha",
  "7876": " joked",
  "7877": " argum",
  "7878": " tilted",
  "7879": " purpose",
  "7880": " Pippa",
  "7881": "Goodnight",
  "7882": " stored",
  "7883": " orders",
  "7884": " loses",
  "7885": "ortunately",
  "7886": " hoops",
  "7887": " exch",
  "7888": " genie",
  "7889": " cowboy",
  "7890": " —",
  "7891": "ppa",
  "7892": " tweet",
  "7893": " spooky",
  "7894": " sheets",
  "7895": " Pepper",
  "7896": " Flo",
  "7897": " Dog",
  "7898": " Duck",
  "7899": "order",
  "7900": " toss",
  "7901": " permitted",
  "7902": "airy",
  "7903": "aven",
  "7904": " quarre",
  "7905": "eedy",
  "7906": "uel",
  "7907": "ongo",
  "7908": " aim",
  "7909": " diamonds",
  "7910": " Fiona",
  "7911": "iscuit",
  "7912": " type",
  "7913": " scram",
  "7914": " pupils",
  "7915": " anticip",
  "7916": " glittering",
  "7917": " trans",
  "7918": " queens",
  "7919": " turtles",
  "7920": "illiam",
  "7921": " nearest",
  "7922": " beaming",
  "7923": " tubes",
  "7924": " ends",
  "7925": " Snowball",
  "7926": " Despite",
  "7927": "igger",
  "7928": " maker",
  "7929": " servant",
  "7930": " whimp",
  "7931": " visitors",
  "7932": " films",
  "7933": " donkey",
  "7934": " spells",
  "7935": " opport",
  "7936": "Am",
  "7937": " untie",
  "7938": " gap",
  "7939": " Hope",
  "7940": " stroke",
  "7941": " fins",
  "7942": " cleared",
  "7943": " rin",
  "7944": " Auntie",
  "7945": " Bounce",
  "7946": " tapping",
  "7947": " oppos",
  "7948": " wasting",
  "7949": " nurses",
  "7950": " customers",
  "7951": "usty",
  "7952": " priz",
  "7953": " swo",
  "7954": " shall",
  "7955": " hunters",
  "7956": "Rosie",
  "7957": " ger",
  "7958": " convinced",
  "7959": " wounds",
  "7960": " swollen",
  "7961": " sweaty",
  "7962": " goats",
  "7963": " slowed",
  "7964": " dressing",
  "7965": " declared",
  "7966": " dot",
  "7967": " examining",
  "7968": "orter",
  "7969": "elope",
  "7970": " opposite",
  "7971": " Bow",
  "7972": " characters",
  "7973": "ilities",
  "7974": "Claire",
  "7975": " failed",
  "7976": " Quackers",
  "7977": " transf",
  "7978": " tidied",
  "7979": " grandfather",
  "7980": "acy",
  "7981": " warrior",
  "7982": " forgiveness",
  "7983": " sternly",
  "7984": " goodies",
  "7985": " lipstick",
  "7986": " guessing",
  "7987": "Leave",
  "7988": " youngest",
  "7989": " scratching",
  "7990": " peep",
  "7991": " seagulls",
  "7992": "mies",
  "7993": "rest",
  "7994": "Car",
  "7995": " inchworm",
  "7996": " Ros",
  "7997": " beeped",
  "7998": "empt",
  "7999": " meowing",
  "8000": "rian",
  "8001": "Stay",
  "8002": "Anne",
  "8003": " rescuing",
  "8004": " thanking",
  "8005": " questioned",
  "8006": " scrambled",
  "8007": " attempt",
  "8008": " Hold",
  "8009": "rie",
  "8010": " grat",
  "8011": " dripping",
  "8012": "ouqu",
  "8013": " tires",
  "8014": " bouqu",
  "8015": " Splash",
  "8016": " Kevin",
  "8017": "even",
  "8018": " active",
  "8019": " stall",
  "8020": " form",
  "8021": " anticipation",
  "8022": " Maisy",
  "8023": "rily",
  "8024": " picnics",
  "8025": " nibble",
  "8026": "Always",
  "8027": " aisle",
  "8028": " responsibility",
  "8029": " responded",
  "8030": " floors",
  "8031": " blond",
  "8032": " Sw",
  "8033": " smashed",
  "8034": " shin",
  "8035": " matey",
  "8036": " attacked",
  "8037": "ivia",
  "8038": "Lena",
  "8039": " force",
  "8040": " explains",
  "8041": "Tweetie",
  "8042": " knocking",
  "8043": " emerged",
  "8044": " Elly",
  "8045": " obeyed",
  "8046": " gratitude",
  "8047": " discoveries",
  "8048": " vibr",
  "8049": " ting",
  "8050": " jud",
  "8051": " inter",
  "8052": "cie",
  "8053": " rely",
  "8054": " zooms",
  "8055": " rays",
  "8056": " decoration",
  "8057": " manners",
  "8058": " classmates",
  "8059": " charge",
  "8060": " Mina",
  "8061": " sprout",
  "8062": " visits",
  "8063": " snug",
  "8064": " sens",
  "8065": " signing",
  "8066": "innie",
  "8067": " spy",
  "8068": " aeroplanes",
  "8069": " soot",
  "8070": " twists",
  "8071": " survive",
  "8072": "ebecca",
  "8073": "yl",
  "8074": "Two",
  "8075": " vegg",
  "8076": " instantly",
  "8077": "munk",
  "8078": "anda",
  "8079": "ippers",
  "8080": "Julie",
  "8081": " wiggly",
  "8082": " loc",
  "8083": " self",
  "8084": " seals",
  "8085": " breaths",
  "8086": " unwra",
  "8087": " rumbling",
  "8088": " ramp",
  "8089": " Elle",
  "8090": "hind",
  "8091": "act",
  "8092": " buckled",
  "8093": " Lion",
  "8094": " brightest",
  "8095": " shrunk",
  "8096": " hen",
  "8097": " munched",
  "8098": " bond",
  "8099": " beeh",
  "8100": " increasing",
  "8101": "sm",
  "8102": "athan",
  "8103": " shimmering",
  "8104": " purrs",
  "8105": " manager",
  "8106": "Je",
  "8107": "idence",
  "8108": " flaps",
  "8109": " earned",
  "8110": " doorbell",
  "8111": " chatter",
  "8112": "gain",
  "8113": "Cindy",
  "8114": "ooking",
  "8115": "oc",
  "8116": "Someone",
  "8117": "Bang",
  "8118": " Woo",
  "8119": "udged",
  "8120": "ching",
  "8121": " swaying",
  "8122": " movements",
  "8123": " lowered",
  "8124": "iens",
  "8125": " Janey",
  "8126": "ittered",
  "8127": "Freddy",
  "8128": " honking",
  "8129": " cracks",
  "8130": " aliens",
  "8131": " Jax",
  "8132": " argument",
  "8133": "ssss",
  "8134": " disobey",
  "8135": " chipmunk",
  "8136": "inger",
  "8137": " whoever",
  "8138": " winding",
  "8139": "romise",
  "8140": "Rob",
  "8141": "ummies",
  "8142": " announced",
  "8143": " Speedy",
  "8144": " Luc",
  "8145": " prevented",
  "8146": " Kelly",
  "8147": " Joan",
  "8148": " beaver",
  "8149": " rowed",
  "8150": " Mae",
  "8151": "its",
  "8152": " switched",
  "8153": " bathing",
  "8154": "lied",
  "8155": " mosquitoes",
  "8156": " Maddy",
  "8157": " taped",
  "8158": "storm",
  "8159": " Taking",
  "8160": "oscope",
  "8161": "belle",
  "8162": "Red",
  "8163": " poses",
  "8164": " offering",
  "8165": " swap",
  "8166": " nuzzled",
  "8167": " Stitch",
  "8168": " Jonny",
  "8169": " prickly",
  "8170": " cons",
  "8171": "flowers",
  "8172": "aret",
  "8173": " swayed",
  "8174": " steth",
  "8175": " flips",
  "8176": " destroying",
  "8177": " Stan",
  "8178": " lapt",
  "8179": "Momma",
  "8180": " minds",
  "8181": " designing",
  "8182": "bee",
  "8183": " cares",
  "8184": " badger",
  "8185": " jobs",
  "8186": " dodged",
  "8187": " rats",
  "8188": " glimmering",
  "8189": " crawls",
  "8190": "Jessie",
  "8191": " whistles",
  "8192": "lo",
  "8193": " smelt",
  "8194": "Uncle",
  "8195": " crops",
  "8196": "rink",
  "8197": " observing",
  "8198": " beautifully",
  "8199": " dangers",
  "8200": "yd",
  "8201": " shines",
  "8202": " exploded",
  "8203": " beating",
  "8204": " Becky",
  "8205": " scolds",
  "8206": " million",
  "8207": " knives",
  "8208": " scooters",
  "8209": " checkout",
  "8210": " stamped",
  "8211": " snaps",
  "8212": "angle",
  "8213": " customer",
  "8214": " generosity",
  "8215": " Spring",
  "8216": "lph",
  "8217": " groan",
  "8218": " languages",
  "8219": " deed",
  "8220": "boards",
  "8221": " germs",
  "8222": "oor",
  "8223": " recorder",
  "8224": " honesty",
  "8225": " hike",
  "8226": " tummies",
  "8227": " stethoscope",
  "8228": " robbers",
  "8229": " paddling",
  "8230": " cocoon",
  "8231": " closing",
  "8232": "lt",
  "8233": " drowned",
  "8234": " Ar",
  "8235": " plug",
  "8236": " haven",
  "8237": " clicked",
  "8238": " expecting",
  "8239": "abra",
  "8240": " laptop",
  "8241": " Ready",
  "8242": "ering",
  "8243": " Finny",
  "8244": " Trust",
  "8245": "Out",
  "8246": " routine",
  "8247": " Rudy",
  "8248": "amma",
  "8249": "Buddy",
  "8250": "Abby",
  "8251": " supplied",
  "8252": " astronauts",
  "8253": " explor",
  "8254": " disappoint",
  "8255": " Sk",
  "8256": " veggies",
  "8257": " court",
  "8258": "ulp",
  "8259": "lor",
  "8260": "oosh",
  "8261": " Sparkle",
  "8262": " steering",
  "8263": " dears",
  "8264": "Co",
  "8265": "otch",
  "8266": " tidying",
  "8267": " conduct",
  "8268": " bouquet",
  "8269": " adds",
  "8270": " beehive",
  "8271": " Bongo",
  "8272": "lest",
  "8273": " unpacking",
  "8274": " sculp",
  "8275": " novels",
  "8276": " ill",
  "8277": " Time",
  "8278": "arable",
  "8279": " cupcake",
  "8280": " Poor",
  "8281": "Choo",
  "8282": "Bear",
  "8283": " statues",
  "8284": " Bad",
  "8285": "uddles",
  "8286": "ita",
  "8287": " tin",
  "8288": " particularly",
  "8289": " chatted",
  "8290": " Sweet",
  "8291": " reminds",
  "8292": "udo",
  "8293": "yler",
  "8294": "udolph",
  "8295": "pit",
  "8296": " shorts",
  "8297": " Phil",
  "8298": "Nice",
  "8299": " hardest",
  "8300": " caw",
  "8301": "Too",
  "8302": " Eddie",
  "8303": " stretches",
  "8304": " healthier",
  "8305": " applause",
  "8306": "rup",
  "8307": "water",
  "8308": " wiser",
  "8309": " floats",
  "8310": "Honey",
  "8311": " ghosts",
  "8312": " conductor",
  "8313": "Robbie",
  "8314": "Arrr",
  "8315": " strum",
  "8316": " Isn",
  "8317": " heaven",
  "8318": " awful",
  "8319": " dollar",
  "8320": " plugged",
  "8321": "pril",
  "8322": " Kay",
  "8323": " wildflowers",
  "8324": " Tammy",
  "8325": " Elsie",
  "8326": " scri",
  "8327": " elect",
  "8328": " Cla",
  "8329": "idents",
  "8330": "idnight",
  "8331": " traded",
  "8332": " overhead",
  "8333": "llas",
  "8334": " squished",
  "8335": " combed",
  "8336": " opinions",
  "8337": " nests",
  "8338": " carries",
  "8339": " Robo",
  "8340": " Momma",
  "8341": " Elsa",
  "8342": "earing",
  "8343": " syrup",
  "8344": " fascinating",
  "8345": " faint",
  "8346": "anced",
  "8347": " swallow",
  "8348": " experiences",
  "8349": " Jean",
  "8350": " sprays",
  "8351": "aula",
  "8352": " umbrellas",
  "8353": " beast",
  "8354": "omb",
  "8355": "Karen",
  "8356": " container",
  "8357": "elieve",
  "8358": " returning",
  "8359": " killed",
  "8360": " bothered",
  "8361": " ouch",
  "8362": "ative",
  "8363": "rough",
  "8364": " gall",
  "8365": " Ava",
  "8366": " locks",
  "8367": " providing",
  "8368": " Amanda",
  "8369": "five",
  "8370": " sets",
  "8371": " flashing",
  "8372": " shorter",
  "8373": " examp",
  "8374": " sculpture",
  "8375": " Roger",
  "8376": " flashed",
  "8377": "chy",
  "8378": " weapons",
  "8379": " checks",
  "8380": "rench",
  "8381": "Yesterday",
  "8382": "ouraged",
  "8383": " teles",
  "8384": " tearing",
  "8385": " bounces",
  "8386": "orking",
  "8387": "Mart",
  "8388": " tests",
  "8389": " hotter",
  "8390": "ordinary",
  "8391": " defeated",
  "8392": " Crabby",
  "8393": "Snow",
  "8394": " papa",
  "8395": " inches",
  "8396": " sprinkle",
  "8397": " grumbled",
  "8398": " glided",
  "8399": " farmers",
  "8400": " scrub",
  "8401": " nights",
  "8402": " Never",
  "8403": "ccidents",
  "8404": " faith",
  "8405": " Charlotte",
  "8406": "centr",
  "8407": " burnt",
  "8408": " Zoomy",
  "8409": " Daniel",
  "8410": "ators",
  "8411": "Tilly",
  "8412": " Sasha",
  "8413": " conv",
  "8414": " telescope",
  "8415": " sadder",
  "8416": "iving",
  "8417": "Aunt",
  "8418": " trusting",
  "8419": " confidence",
  "8420": " concentr",
  "8421": " applauding",
  "8422": "ooks",
  "8423": " twenty",
  "8424": " serving",
  "8425": " electric",
  "8426": "Mon",
  "8427": " hiss",
  "8428": " convince",
  "8429": "ession",
  "8430": "car",
  "8431": " gardens",
  "8432": " cheated",
  "8433": " Cle",
  "8434": "ended",
  "8435": " icing",
  "8436": "lers",
  "8437": "Papa",
  "8438": " bluebird",
  "8439": " necks",
  "8440": " crystals",
  "8441": " burns",
  "8442": " awhile",
  "8443": " Nancy",
  "8444": "lephant",
  "8445": "Buzz",
  "8446": " Helen",
  "8447": " insep",
  "8448": " Patty",
  "8449": " cubs",
  "8450": " visitor",
  "8451": " Peppa",
  "8452": " teams",
  "8453": " petting",
  "8454": " Say",
  "8455": "vy",
  "8456": " raising",
  "8457": "Che",
  "8458": " collapsed",
  "8459": "ances",
  "8460": " extraordinary",
  "8461": " checking",
  "8462": " inseparable",
  "8463": "Put",
  "8464": "Pl",
  "8465": "Kids",
  "8466": " dryer",
  "8467": " blown",
  "8468": " sirens",
  "8469": " goo",
  "8470": " forgives",
  "8471": "Friend",
  "8472": " Chick",
  "8473": " types",
  "8474": " munching",
  "8475": " soapy",
  "8476": " member",
  "8477": " example",
  "8478": " born",
  "8479": " odd",
  "8480": " grassho",
  "8481": " Ana",
  "8482": " instrument",
  "8483": " imaginary",
  "8484": " biscuit",
  "8485": " prizes",
  "8486": " natur",
  "8487": " behaviour",
  "8488": " playd",
  "8489": " Lina",
  "8490": "…",
  "8491": "bu",
  "8492": " meows",
  "8493": "rick",
  "8494": "Jon",
  "8495": " singers",
  "8496": " waded",
  "8497": " bicycles",
  "8498": "val",
  "8499": "Brown",
  "8500": " Zero",
  "8501": "Each",
  "8502": " kit",
  "8503": " compan",
  "8504": "shaped",
  "8505": "Bu",
  "8506": " sprang",
  "8507": " Eric",
  "8508": " Bang",
  "8509": " waters",
  "8510": " Rudolph",
  "8511": " salon",
  "8512": " peeped",
  "8513": " flick",
  "8514": " upside",
  "8515": " dock",
  "8516": " opportunity",
  "8517": " lim",
  "8518": " flip",
  "8519": " Terry",
  "8520": " Izzy",
  "8521": " Fairy",
  "8522": "adabra",
  "8523": " exploration",
  "8524": " attitude",
  "8525": " traveling",
  "8526": " invent",
  "8527": " Ashley",
  "8528": "owing",
  "8529": "Boys",
  "8530": " longest",
  "8531": " conquered",
  "8532": "Liz",
  "8533": " unlo",
  "8534": " expression",
  "8535": " distracted",
  "8536": "adually",
  "8537": " sandy",
  "8538": " hood",
  "8539": "bl",
  "8540": " realizes",
  "8541": " bride",
  "8542": " hunting",
  "8543": " cheaper",
  "8544": " Gary",
  "8545": "cadabra",
  "8546": " deserved",
  "8547": "emies",
  "8548": " flowing",
  "8549": " enemies",
  "8550": " wriggled",
  "8551": " unable",
  "8552": " fet",
  "8553": " trigger",
  "8554": " pills",
  "8555": " coolest",
  "8556": " Frankie",
  "8557": " sweaters",
  "8558": " mommies",
  "8559": " William",
  "8560": " flock",
  "8561": " engines",
  "8562": " envelopes",
  "8563": " Ant",
  "8564": "getic",
  "8565": " otters",
  "8566": " La",
  "8567": " Pretty",
  "8568": " Magic",
  "8569": " bomb",
  "8570": "str",
  "8571": " gulp",
  "8572": " clearly",
  "8573": " Fel",
  "8574": " discouraged",
  "8575": " rows",
  "8576": " burger",
  "8577": " swimmer",
  "8578": " Smo",
  "8579": "whel",
  "8580": "free",
  "8581": " whales",
  "8582": " reappeared",
  "8583": " compete",
  "8584": " clip",
  "8585": "erg",
  "8586": "Suzy",
  "8587": " chatting",
  "8588": "ouched",
  "8589": " tips",
  "8590": " grasshopper",
  "8591": " 5",
  "8592": " passes",
  "8593": " countries",
  "8594": " quacking",
  "8595": " glittered",
  "8596": "ending",
  "8597": " sometime",
  "8598": " robin",
  "8599": "jest",
  "8600": "aptain",
  "8601": " thump",
  "8602": " overwhel",
  "8603": "over",
  "8604": "balls",
  "8605": " unco",
  "8606": " torto",
  "8607": "icate",
  "8608": " ability",
  "8609": " De",
  "8610": " patches",
  "8611": " annoying",
  "8612": "off",
  "8613": " mattered",
  "8614": " Step",
  "8615": " spilling",
  "8616": " details",
  "8617": " Mother",
  "8618": " strips",
  "8619": " enjoyable",
  "8620": " Wooly",
  "8621": "ship",
  "8622": "ingo",
  "8623": "Jacob",
  "8624": " tortoise",
  "8625": " Jilly",
  "8626": " common",
  "8627": " fond",
  "8628": " crowded",
  "8629": " whined",
  "8630": " sincere",
  "8631": " cheat",
  "8632": " Make",
  "8633": " Amber",
  "8634": " gallop",
  "8635": "iter",
  "8636": " treas",
  "8637": " thicker",
  "8638": " uniforms",
  "8639": " relaxing",
  "8640": " approach",
  "8641": " soundly",
  "8642": " doz",
  "8643": " yawning",
  "8644": " surely",
  "8645": " companion",
  "8646": " Zack",
  "8647": " hangers",
  "8648": " cheerfully",
  "8649": " Immediately",
  "8650": " marking",
  "8651": " curl",
  "8652": "Ol",
  "8653": " Show",
  "8654": " Eliza",
  "8655": " Penelope",
  "8656": "oard",
  "8657": "Whiskers",
  "8658": "stand",
  "8659": "iolet",
  "8660": " skies",
  "8661": " Prince",
  "8662": " Wigg",
  "8663": " Cr",
  "8664": " prod",
  "8665": " Curious",
  "8666": "Kayla",
  "8667": " stur",
  "8668": " formed",
  "8669": " cafe",
  "8670": " Tessa",
  "8671": " Olivia",
  "8672": " whisk",
  "8673": " natural",
  "8674": " becomes",
  "8675": " Nana",
  "8676": " Jason",
  "8677": "Keep",
  "8678": "Gina",
  "8679": " outfits",
  "8680": " washes",
  "8681": " treasured",
  "8682": " beetles",
  "8683": " noticing",
  "8684": " Bobbie",
  "8685": "ints",
  "8686": " vibrant",
  "8687": " jugg",
  "8688": " bubbly",
  "8689": " aboard",
  "8690": " Nice",
  "8691": " squeaky",
  "8692": " repairman",
  "8693": " airplanes",
  "8694": "bur",
  "8695": "Ollie",
  "8696": " moat",
  "8697": "Gr",
  "8698": " Sparkles",
  "8699": " weighing",
  "8700": "elvet",
  "8701": " moonlight",
  "8702": "shadow",
  "8703": " shallow",
  "8704": " Matilda",
  "8705": " Accidents",
  "8706": "asmine",
  "8707": "iggie",
  "8708": " haircuts",
  "8709": " backs",
  "8710": "Instead",
  "8711": " melody",
  "8712": "uggy",
  "8713": " chin",
  "8714": " Angel",
  "8715": " pleas",
  "8716": " hab",
  "8717": "ole",
  "8718": " swirls",
  "8719": " Pick",
  "8720": "Hold",
  "8721": " Butter",
  "8722": " storms",
  "8723": " newspapers",
  "8724": " Yum",
  "8725": " chill",
  "8726": " bund",
  "8727": "Matt",
  "8728": " commun",
  "8729": " mugs",
  "8730": " hummed",
  "8731": " freezing",
  "8732": " blonde",
  "8733": "hole",
  "8734": "andra",
  "8735": " sneezes",
  "8736": " miracle",
  "8737": " erase",
  "8738": " cowboys",
  "8739": " Rebecca",
  "8740": " Foxy",
  "8741": "hny",
  "8742": "faction",
  "8743": " pepperoni",
  "8744": " messes",
  "8745": " dev",
  "8746": " Twinkle",
  "8747": " Sir",
  "8748": " Dino",
  "8749": "Feeling",
  "8750": " satisfaction",
  "8751": " lump",
  "8752": " compliment",
  "8753": " calmer",
  "8754": " squinted",
  "8755": " Vroom",
  "8756": "ighty",
  "8757": " Bonnie",
  "8758": "endant",
  "8759": " scattering",
  "8760": " Pin",
  "8761": " blushed",
  "8762": "venir",
  "8763": " successfully",
  "8764": " sipped",
  "8765": " clue",
  "8766": " Flora",
  "8767": "roll",
  "8768": "Lulu",
  "8769": "Big",
  "8770": " souvenir",
  "8771": " situations",
  "8772": " occasion",
  "8773": " leaking",
  "8774": " Se",
  "8775": " Brian",
  "8776": " joyfully",
  "8777": " coughed",
  "8778": " Shelly",
  "8779": " positive",
  "8780": " models",
  "8781": "Both",
  "8782": "Anytime",
  "8783": " Wo",
  "8784": " Midnight",
  "8785": "',",
  "8786": " glittery",
  "8787": "ware",
  "8788": " meatballs",
  "8789": "Hop",
  "8790": " smartest",
  "8791": " bruises",
  "8792": "immered",
  "8793": "Zoom",
  "8794": " yumm",
  "8795": " weighs",
  "8796": " Gus",
  "8797": " scenery",
  "8798": " explaining",
  "8799": " ank",
  "8800": " Quickly",
  "8801": " local",
  "8802": " tickling",
  "8803": " answering",
  "8804": " Whoever",
  "8805": "ift",
  "8806": "bank",
  "8807": "amil",
  "8808": "Luke",
  "8809": " Ricky",
  "8810": " Grand",
  "8811": "”,",
  "8812": "Zoe",
  "8813": " unfair",
  "8814": " snowy",
  "8815": " scares",
  "8816": " Oink",
  "8817": " burgers",
  "8818": " rewards",
  "8819": " pressing",
  "8820": " talents",
  "8821": " pinching",
  "8822": "amboo",
  "8823": "Lizzy",
  "8824": " welcoming",
  "8825": " shattered",
  "8826": "etchup",
  "8827": "Never",
  "8828": "Betty",
  "8829": " possib",
  "8830": " Hello",
  "8831": "sie",
  "8832": " bulbs",
  "8833": " Sky",
  "8834": " teap",
  "8835": " rewarding",
  "8836": " hisses",
  "8837": " cleans",
  "8838": " Jenn",
  "8839": "belt",
  "8840": " rubbish",
  "8841": " roast",
  "8842": "Hmm",
  "8843": " pantry",
  "8844": " bound",
  "8845": "ili",
  "8846": "Betsy",
  "8847": "HE",
  "8848": " scow",
  "8849": "isp",
  "8850": " rowing",
  "8851": " traps",
  "8852": " practised",
  "8853": " crocodiles",
  "8854": "yle",
  "8855": " binoc",
  "8856": " Stri",
  "8857": " teapot",
  "8858": " digs",
  "8859": " Seeing",
  "8860": " intently",
  "8861": "spe",
  "8862": " forts",
  "8863": " sturdy",
  "8864": "scotch",
  "8865": "Brownie",
  "8866": " minded",
  "8867": " groaned",
  "8868": " Peggy",
  "8869": " pilots",
  "8870": " Right",
  "8871": " Ne",
  "8872": " marveled",
  "8873": " cells",
  "8874": " Zee",
  "8875": " Pet",
  "8876": "Mabel",
  "8877": " rebu",
  "8878": " baller",
  "8879": "beep",
  "8880": "Cat",
  "8881": " topp",
  "8882": " tempted",
  "8883": " seatbelt",
  "8884": " Cara",
  "8885": "sey",
  "8886": " Rich",
  "8887": "icious",
  "8888": " horri",
  "8889": "Susan",
  "8890": " Tyler",
  "8891": " Ho",
  "8892": "amiliar",
  "8893": "Tara",
  "8894": " stuffing",
  "8895": " pipes",
  "8896": " angrily",
  "8897": " unfamiliar",
  "8898": " tunes",
  "8899": " sandpit",
  "8900": " ketchup",
  "8901": " finishes",
  "8902": " bends",
  "8903": " apology",
  "8904": " Playing",
  "8905": "ai",
  "8906": " smoking",
  "8907": " microw",
  "8908": " funn",
  "8909": " Behind",
  "8910": " fireflies",
  "8911": " doorstep",
  "8912": " croaked",
  "8913": " bubbling",
  "8914": "mel",
  "8915": " invites",
  "8916": " Still",
  "8917": " Boo",
  "8918": "Bo",
  "8919": " tentacles",
  "8920": "jack",
  "8921": " meadows",
  "8922": " lookout",
  "8923": " goodness",
  "8924": " energetic",
  "8925": " microwave",
  "8926": " Gray",
  "8927": " runner",
  "8928": " Bess",
  "8929": "acock",
  "8930": "!'.",
  "8931": " sweeter",
  "8932": " tugging",
  "8933": " shyly",
  "8934": " clut",
  "8935": "Open",
  "8936": " embra",
  "8937": " chews",
  "8938": "Ahoy",
  "8939": " spoiling",
  "8940": " exchange",
  "8941": "ifi",
  "8942": " Belle",
  "8943": "udy",
  "8944": " acts",
  "8945": " messages",
  "8946": " stepping",
  "8947": " shrank",
  "8948": " cages",
  "8949": " Melissa",
  "8950": "rupt",
  "8951": "lish",
  "8952": " watermel",
  "8953": " strolled",
  "8954": " overwhelmed",
  "8955": " April",
  "8956": "umper",
  "8957": " ripp",
  "8958": " moons",
  "8959": " Since",
  "8960": " slapping",
  "8961": " protection",
  "8962": " lar",
  "8963": " cheating",
  "8964": " boards",
  "8965": "Fro",
  "8966": " hesitation",
  "8967": "Achoo",
  "8968": " caterpillars",
  "8969": " crisp",
  "8970": "\n\n",
  "8971": "ulars",
  "8972": "Jeff",
  "8973": " obst",
  "8974": " jets",
  "8975": " gasps",
  "8976": " defeat",
  "8977": " lull",
  "8978": " inju",
  "8979": " dou",
  "8980": " chopping",
  "8981": " Velvet",
  "8982": "Bee",
  "8983": " popsic",
  "8984": " Startled",
  "8985": " Super",
  "8986": "scar",
  "8987": "otion",
  "8988": " connect",
  "8989": " Oh",
  "8990": " underwater",
  "8991": " melons",
  "8992": " fade",
  "8993": " Willy",
  "8994": " Captain",
  "8995": " foam",
  "8996": " aston",
  "8997": "?”.",
  "8998": " binoculars",
  "8999": " playhouse",
  "9000": " demanding",
  "9001": " certainly",
  "9002": " alley",
  "9003": " Does",
  "9004": "how",
  "9005": " Andrew",
  "9006": "ka",
  "9007": " pouch",
  "9008": " Moo",
  "9009": " 4",
  "9010": " shares",
  "9011": " section",
  "9012": " crouched",
  "9013": " ballerina",
  "9014": " slithered",
  "9015": " cherish",
  "9016": " month",
  "9017": " fishy",
  "9018": " Bra",
  "9019": "racadabra",
  "9020": " loyalty",
  "9021": " differently",
  "9022": " bamboo",
  "9023": " Looking",
  "9024": "chief",
  "9025": "Lizzie",
  "9026": " guards",
  "9027": " BunBun",
  "9028": " pounced",
  "9029": " hopscotch",
  "9030": " transformed",
  "9031": " rips",
  "9032": " peacock",
  "9033": "anted",
  "9034": " recess",
  "9035": " meaning",
  "9036": " disappointment",
  "9037": " Carla",
  "9038": " Tiger",
  "9039": " riverbank",
  "9040": " fist",
  "9041": "iciest",
  "9042": " unwrapped",
  "9043": " prog",
  "9044": "Danger",
  "9045": " squeezes",
  "9046": "Everyday",
  "9047": " Jody",
  "9048": "Nothing",
  "9049": " playdate",
  "9050": " landing",
  "9051": " Liam",
  "9052": " icky",
  "9053": "Still",
  "9054": " stores",
  "9055": " rack",
  "9056": " coop",
  "9057": " ankle",
  "9058": " sweetly",
  "9059": " raking",
  "9060": " pokes",
  "9061": "alled",
  "9062": " fries",
  "9063": " nightmares",
  "9064": " erupt",
  "9065": " cherished",
  "9066": " Of",
  "9067": "cycles",
  "9068": " whimpered",
  "9069": " amused",
  "9070": " Elephant",
  "9071": " Choo",
  "9072": "oss",
  "9073": " arrest",
  "9074": "solut",
  "9075": "iring",
  "9076": " thie",
  "9077": " snorted",
  "9078": " napped",
  "9079": " Win",
  "9080": " Nora",
  "9081": " Light",
  "9082": " Gracie",
  "9083": "rum",
  "9084": ",'",
  "9085": " thrill",
  "9086": " birdy",
  "9087": "Milo",
  "9088": " teamwork",
  "9089": " judges",
  "9090": " Candy",
  "9091": "Lia",
  "9092": " Wait",
  "9093": " Monkey",
  "9094": "!’",
  "9095": " actor",
  "9096": " Claus",
  "9097": "ulf",
  "9098": "gets",
  "9099": " crickets",
  "9100": " Sleep",
  "9101": " Bert",
  "9102": "edic",
  "9103": "Suzie",
  "9104": " blades",
  "9105": " Ba",
  "9106": "rent",
  "9107": " majest",
  "9108": " Rat",
  "9109": " thunderstorm",
  "9110": " mayor",
  "9111": " centre",
  "9112": "Pip",
  "9113": " shoel",
  "9114": "use",
  "9115": " watermelon",
  "9116": " tickles",
  "9117": " injured",
  "9118": " gates",
  "9119": " Per",
  "9120": " Barry",
  "9121": " thieves",
  "9122": " sacks",
  "9123": " mysteries",
  "9124": " groups",
  "9125": " Whe",
  "9126": " styles",
  "9127": "emy",
  "9128": "Ralph",
  "9129": "Mother",
  "9130": "Moo",
  "9131": " snapping",
  "9132": "rob",
  "9133": "othy",
  "9134": " miller",
  "9135": " lumberjack",
  "9136": " Again",
  "9137": "Maya",
  "9138": " stew",
  "9139": " roo",
  "9140": " leans",
  "9141": " Hootie",
  "9142": "Ra",
  "9143": " temptation",
  "9144": " creams",
  "9145": "Julia",
  "9146": " tant",
  "9147": "uster",
  "9148": "isdom",
  "9149": " keyhole",
  "9150": " enemy",
  "9151": " condition",
  "9152": " boil",
  "9153": "Everything",
  "9154": " structures",
  "9155": " intelligence",
  "9156": " choosing",
  "9157": " Sl",
  "9158": "uess",
  "9159": " spare",
  "9160": " frustration",
  "9161": "that",
  "9162": " hundreds",
  "9163": " Share",
  "9164": " ding",
  "9165": " charm",
  "9166": "tern",
  "9167": "Maddie",
  "9168": "Hurry",
  "9169": " ruff",
  "9170": "uction",
  "9171": " scene",
  "9172": "Maddy",
  "9173": " whir",
  "9174": " Rufus",
  "9175": "inct",
  "9176": "ambi",
  "9177": " auntie",
  "9178": "hings",
  "9179": " seasons",
  "9180": " heels",
  "9181": " banging",
  "9182": " Jennie",
  "9183": "ige",
  "9184": " swimsuits",
  "9185": " supporting",
  "9186": " sleeps",
  "9187": "oured",
  "9188": "icest",
  "9189": " benches",
  "9190": " Joanna",
  "9191": " weaker",
  "9192": " tantrum",
  "9193": " computers",
  "9194": " Mine",
  "9195": "Baa",
  "9196": " rebuild",
  "9197": " textures",
  "9198": " levers",
  "9199": " level",
  "9200": "stantly",
  "9201": " communicate",
  "9202": " Lenny",
  "9203": "sers",
  "9204": " trading",
  "9205": " nicest",
  "9206": " bas",
  "9207": " Sunshine",
  "9208": "uno",
  "9209": "speople",
  "9210": "lyn",
  "9211": " wiggling",
  "9212": " hissing",
  "9213": " bold",
  "9214": " Beep",
  "9215": " townspeople",
  "9216": " electricity",
  "9217": " timid",
  "9218": " shinier",
  "9219": " luckiest",
  "9220": "Does",
  "9221": " lush",
  "9222": " alongside",
  "9223": " Bruce",
  "9224": " trusty",
  "9225": " spears",
  "9226": " plo",
  "9227": " dart",
  "9228": " claw",
  "9229": " camel",
  "9230": "Which",
  "9231": " experiment",
  "9232": "gar",
  "9233": " stun",
  "9234": " Annabelle",
  "9235": " warmed",
  "9236": " Fly",
  "9237": "reg",
  "9238": " trusts",
  "9239": " tot",
  "9240": " pedaling",
  "9241": " glisten",
  "9242": " Care",
  "9243": " thumbs",
  "9244": " softened",
  "9245": " prank",
  "9246": " Rosa",
  "9247": " Liza",
  "9248": "eremy",
  "9249": " magnifying",
  "9250": " hudd",
  "9251": " Life",
  "9252": "under",
  "9253": " quarreled",
  "9254": "pect",
  "9255": " mooed",
  "9256": " kneeling",
  "9257": "THE",
  "9258": " foggy",
  "9259": " Dot",
  "9260": "prints",
  "9261": " whine",
  "9262": " toothbrush",
  "9263": " reversing",
  "9264": " disappearing",
  "9265": " cops",
  "9266": " Gold",
  "9267": " skirts",
  "9268": " astonished",
  "9269": " Very",
  "9270": " Man",
  "9271": " harvest",
  "9272": " da",
  "9273": " Another",
  "9274": "Curious",
  "9275": "mie",
  "9276": "Pretty",
  "9277": " Tears",
  "9278": " Te",
  "9279": "Excitedly",
  "9280": "\"!",
  "9281": " worst",
  "9282": " knobs",
  "9283": " guarding",
  "9284": " Ouch",
  "9285": "ormation",
  "9286": " writer",
  "9287": " boiling",
  "9288": " Lots",
  "9289": " consider",
  "9290": "solutely",
  "9291": " tops",
  "9292": " groom",
  "9293": "Jacky",
  "9294": " fetched",
  "9295": "Mikey",
  "9296": "Jan",
  "9297": " yelp",
  "9298": " continuing",
  "9299": " compared",
  "9300": " Fish",
  "9301": "aisie",
  "9302": "Nick",
  "9303": " concerned",
  "9304": " baa",
  "9305": "rap",
  "9306": "cat",
  "9307": " motorcycles",
  "9308": "Try",
  "9309": "Fortunately",
  "9310": " unless",
  "9311": " oldest",
  "9312": " creep",
  "9313": " magically",
  "9314": " Tree",
  "9315": " Oliver",
  "9316": " revealing",
  "9317": " sensation",
  "9318": " improving",
  "9319": " bowing",
  "9320": " kangaroos",
  "9321": " lullaby",
  "9322": " cupboards",
  "9323": " canv",
  "9324": "guard",
  "9325": "barrow",
  "9326": "Linda",
  "9327": " wheelbarrow",
  "9328": " cuddling",
  "9329": " Har",
  "9330": "ala",
  "9331": "Pr",
  "9332": " peak",
  "9333": " Peep",
  "9334": " Hurry",
  "9335": " Chickie",
  "9336": "oto",
  "9337": "ial",
  "9338": " poisonous",
  "9339": " owns",
  "9340": " bushy",
  "9341": "wen",
  "9342": "ker",
  "9343": " popping",
  "9344": " Was",
  "9345": " Tre",
  "9346": " embarrassing",
  "9347": " Mighty",
  "9348": "agine",
  "9349": " journeys",
  "9350": " cooled",
  "9351": " brains",
  "9352": " wrench",
  "9353": " soothing",
  "9354": " disagre",
  "9355": "ost",
  "9356": " whirl",
  "9357": "urity",
  "9358": "omp",
  "9359": "inny",
  "9360": " guardian",
  "9361": " aloud",
  "9362": " Outside",
  "9363": "Abracadabra",
  "9364": " shoots",
  "9365": " drying",
  "9366": " blade",
  "9367": " Woof",
  "9368": "well",
  "9369": "ibly",
  "9370": "Slowly",
  "9371": "Deal",
  "9372": " realise",
  "9373": " narrow",
  "9374": " Sal",
  "9375": " sneaks",
  "9376": " shh",
  "9377": " allowing",
  "9378": "ifer",
  "9379": " troll",
  "9380": " invitations",
  "9381": " Ma",
  "9382": " coughing",
  "9383": " arom",
  "9384": " Martin",
  "9385": " Fifi",
  "9386": " Birdie",
  "9387": "iky",
  "9388": " facing",
  "9389": " courageous",
  "9390": " canvas",
  "9391": " facts",
  "9392": "vering",
  "9393": " larger",
  "9394": " allerg",
  "9395": " Felix",
  "9396": "ogo",
  "9397": "People",
  "9398": " mindful",
  "9399": "cutter",
  "9400": " sleds",
  "9401": " heavily",
  "9402": " deeply",
  "9403": " dashed",
  "9404": " cracker",
  "9405": " puppets",
  "9406": " mustered",
  "9407": " bud",
  "9408": " Leah",
  "9409": " Alf",
  "9410": "Jessica",
  "9411": " nearer",
  "9412": " disaster",
  "9413": " angrier",
  "9414": " Excitedly",
  "9415": " sus",
  "9416": " current",
  "9417": " Ed",
  "9418": " --",
  "9419": "mark",
  "9420": " whoosh",
  "9421": " sobbing",
  "9422": " blooms",
  "9423": " quilt",
  "9424": " honks",
  "9425": " costs",
  "9426": "Sophia",
  "9427": "Remy",
  "9428": " instinct",
  "9429": "inging",
  "9430": "Michael",
  "9431": " drip",
  "9432": " caps",
  "9433": " Bambi",
  "9434": " Afterwards",
  "9435": "Jackie",
  "9436": "June",
  "9437": " medals",
  "9438": " knit",
  "9439": " foreshadow",
  "9440": " cousins",
  "9441": " hollow",
  "9442": " completing",
  "9443": " shrugs",
  "9444": " circled",
  "9445": " Riley",
  "9446": " zips",
  "9447": " realizing",
  "9448": " property",
  "9449": " Ever",
  "9450": "Sunny",
  "9451": " scoops",
  "9452": " repeats",
  "9453": " Boun",
  "9454": "Tiny",
  "9455": " throne",
  "9456": " loudest",
  "9457": " hips",
  "9458": " contented",
  "9459": " wolves",
  "9460": " warmest",
  "9461": " repairing",
  "9462": " mold",
  "9463": " hangs",
  "9464": " flashes",
  "9465": " Ice",
  "9466": " whipped",
  "9467": " depart",
  "9468": "ashes",
  "9469": " copied",
  "9470": " attempts",
  "9471": "elling",
  "9472": " till",
  "9473": " skate",
  "9474": " security",
  "9475": " plopped",
  "9476": " lizards",
  "9477": " lava",
  "9478": " cooperate",
  "9479": " Mona",
  "9480": " Lu",
  "9481": "this",
  "9482": "Lou",
  "9483": "Isn",
  "9484": " opt",
  "9485": " necess",
  "9486": " Ravi",
  "9487": " ''",
  "9488": "colored",
  "9489": "Snowy",
  "9490": " Wilbur",
  "9491": "antern",
  "9492": " waking",
  "9493": " winds",
  "9494": "sa",
  "9495": " woodcutter",
  "9496": "cri",
  "9497": "Excited",
  "9498": " spiky",
  "9499": " sooner",
  "9500": " pose",
  "9501": " harmony",
  "9502": " cutter",
  "9503": " Math",
  "9504": " Gabby",
  "9505": " achievement",
  "9506": " Chuck",
  "9507": " preschool",
  "9508": " footprints",
  "9509": " flooded",
  "9510": " dozed",
  "9511": " allowance",
  "9512": " Brad",
  "9513": " rails",
  "9514": " pleasant",
  "9515": " kayaking",
  "9516": " huddled",
  "9517": " glared",
  "9518": " fights",
  "9519": " lunchtime",
  "9520": " calming",
  "9521": "Outside",
  "9522": " theat",
  "9523": " incredibly",
  "9524": "uppy",
  "9525": " juiciest",
  "9526": " minding",
  "9527": " tale",
  "9528": " Deal",
  "9529": "rrrr",
  "9530": " ticking",
  "9531": " hooves",
  "9532": "bbi",
  "9533": " builder",
  "9534": "emon",
  "9535": " gratefully",
  "9536": " Tomorrow",
  "9537": "tled",
  "9538": "Jump",
  "9539": " perfor",
  "9540": " otherwise",
  "9541": " disagreement",
  "9542": " cig",
  "9543": " aroma",
  "9544": "perately",
  "9545": " Rainbow",
  "9546": "Janie",
  "9547": " swapped",
  "9548": "Pam",
  "9549": " seriously",
  "9550": " hatched",
  "9551": " glistening",
  "9552": " bellies",
  "9553": " strokes",
  "9554": " jing",
  "9555": "reya",
  "9556": " purch",
  "9557": " movement",
  "9558": " booth",
  "9559": " Cook",
  "9560": " CD",
  "9561": " springing",
  "9562": " speaks",
  "9563": " soda",
  "9564": " shave",
  "9565": " Peanut",
  "9566": " Buggy",
  "9567": "Fire",
  "9568": " robe",
  "9569": " grump",
  "9570": " cigaret",
  "9571": " challenges",
  "9572": " Mila",
  "9573": " theatre",
  "9574": " Paula",
  "9575": " Isab",
  "9576": "cus",
  "9577": " lifeguard",
  "9578": " absolutely",
  "9579": " webs",
  "9580": " quacks",
  "9581": "hand",
  "9582": " possibilities",
  "9583": " habit",
  "9584": " Ziggy",
  "9585": " Day",
  "9586": "pan",
  "9587": " loads",
  "9588": " interrupt",
  "9589": " oceans",
  "9590": " ench",
  "9591": " admit",
  "9592": "ics",
  "9593": " persistence",
  "9594": "ssy",
  "9595": "iments",
  "9596": "ggles",
  "9597": "Spike",
  "9598": "Jenna",
  "9599": " stalk",
  "9600": " sniffled",
  "9601": " glanced",
  "9602": "oned",
  "9603": " owls",
  "9604": "Davey",
  "9605": " lasted",
  "9606": " daily",
  "9607": " capture",
  "9608": " bumping",
  "9609": " Jose",
  "9610": " Jasmine",
  "9611": "berry",
  "9612": "Only",
  "9613": " exh",
  "9614": " bats",
  "9615": "icent",
  "9616": " squeal",
  "9617": " Could",
  "9618": " musicians",
  "9619": " lever",
  "9620": " Janet",
  "9621": " Allie",
  "9622": "sitter",
  "9623": " susp",
  "9624": " bathed",
  "9625": "cr",
  "9626": " smoothly",
  "9627": " blamed",
  "9628": " Patrick",
  "9629": " rinse",
  "9630": " hoot",
  "9631": " goggles",
  "9632": " Yesterday",
  "9633": " Smoke",
  "9634": "icking",
  "9635": " stirs",
  "9636": "Martha",
  "9637": " springtime",
  "9638": " imaginations",
  "9639": " Ken",
  "9640": "Ooh",
  "9641": " Hug",
  "9642": "iana",
  "9643": " pollen",
  "9644": " desperately",
  "9645": " Ginger",
  "9646": "ushes",
  "9647": " overfl",
  "9648": " caution",
  "9649": " Through",
  "9650": " Over",
  "9651": " Dra",
  "9652": "aps",
  "9653": "aper",
  "9654": " racer",
  "9655": " floppy",
  "9656": " desks",
  "9657": " Steven",
  "9658": " Ratty",
  "9659": " uncovered",
  "9660": " stains",
  "9661": " pounds",
  "9662": " passenger",
  "9663": " nets",
  "9664": " mesmerised",
  "9665": " dolly",
  "9666": " deciding",
  "9667": " Oscar",
  "9668": "oga",
  "9669": "just",
  "9670": "Along",
  "9671": " speaker",
  "9672": " wrapper",
  "9673": " stacking",
  "9674": " hooks",
  "9675": "Chirp",
  "9676": " progress",
  "9677": " folds",
  "9678": " roamed",
  "9679": " priv",
  "9680": " necessary",
  "9681": " process",
  "9682": " messed",
  "9683": " chili",
  "9684": "mate",
  "9685": " wax",
  "9686": " recommendation",
  "9687": " piled",
  "9688": " introducing",
  "9689": " fulf",
  "9690": " cutest",
  "9691": " parks",
  "9692": " hatch",
  "9693": " energ",
  "9694": " vinegar",
  "9695": " Ms",
  "9696": "onest",
  "9697": "Bird",
  "9698": " trim",
  "9699": " fooled",
  "9700": " disobeyed",
  "9701": " desperate",
  "9702": " cooed",
  "9703": " Hopper",
  "9704": " obediently",
  "9705": " amongst",
  "9706": "onut",
  "9707": "erts",
  "9708": " undone",
  "9709": " pecks",
  "9710": " maps",
  "9711": " babysitter",
  "9712": " anten",
  "9713": " During",
  "9714": "Years",
  "9715": "Although",
  "9716": "Simon",
  "9717": " yummiest",
  "9718": " kinder",
  "9719": " champ",
  "9720": "fusion",
  "9721": "ani",
  "9722": " shooed",
  "9723": " hovering",
  "9724": " confusion",
  "9725": " chains",
  "9726": " Thumper",
  "9727": "rons",
  "9728": "Aw",
  "9729": " magnificent",
  "9730": " kissing",
  "9731": " hoses",
  "9732": " desserts",
  "9733": " Off",
  "9734": "ically",
  "9735": "bed",
  "9736": "aste",
  "9737": "Samantha",
  "9738": "Dolly",
  "9739": " purring",
  "9740": " aprons",
  "9741": " allergic",
  "9742": " dedic",
  "9743": " clubs",
  "9744": " gulped",
  "9745": " widely",
  "9746": " laces",
  "9747": " differences",
  "9748": " date",
  "9749": " coconut",
  "9750": " alligators",
  "9751": "isbee",
  "9752": " sleigh",
  "9753": " instincts",
  "9754": " hamster",
  "9755": "umed",
  "9756": "keepers",
  "9757": " wanna",
  "9758": " swat",
  "9759": " Toto",
  "9760": " Pinchy",
  "9761": "mers",
  "9762": "aith",
  "9763": "Mel",
  "9764": "Coco",
  "9765": " greatest",
  "9766": " exhib",
  "9767": " charged",
  "9768": " bundle",
  "9769": " Thankfully",
  "9770": "Larry",
  "9771": " untangle",
  "9772": " ric",
  "9773": " cuc",
  "9774": " Marley",
  "9775": " Libby",
  "9776": " unz",
  "9777": " scut",
  "9778": " rinsed",
  "9779": " scratchy",
  "9780": " compromise",
  "9781": " Mamma",
  "9782": "shirt",
  "9783": " silently",
  "9784": " reflect",
  "9785": " ostriches",
  "9786": " comets",
  "9787": "arky",
  "9788": " roller",
  "9789": "Carl",
  "9790": " nibbling",
  "9791": " Jodie",
  "9792": "ellow",
  "9793": "Im",
  "9794": " valleys",
  "9795": " lunchbox",
  "9796": " doggie",
  "9797": " cloths",
  "9798": " bolt",
  "9799": " army",
  "9800": "she",
  "9801": " tempting",
  "9802": " performers",
  "9803": " headache",
  "9804": " drill",
  "9805": " depths",
  "9806": " ages",
  "9807": " Jump",
  "9808": " doves",
  "9809": " borrowing",
  "9810": "form",
  "9811": "aming",
  "9812": " snoring",
  "9813": " halves",
  "9814": " gladly",
  "9815": " files",
  "9816": " crafts",
  "9817": " blur",
  "9818": " squirted",
  "9819": " creak",
  "9820": " Tra",
  "9821": "ydia",
  "9822": " rocky",
  "9823": " bait",
  "9824": " Pink",
  "9825": "Mina",
  "9826": " learner",
  "9827": " mustn",
  "9828": " Patches",
  "9829": " Gemma",
  "9830": " Buster",
  "9831": "usy",
  "9832": " lif",
  "9833": " keen",
  "9834": " Which",
  "9835": " Flutter",
  "9836": "Chris",
  "9837": " unfold",
  "9838": " hippos",
  "9839": "oors",
  "9840": "acey",
  "9841": " slurp",
  "9842": " indoors",
  "9843": " gummy",
  "9844": " challenged",
  "9845": " Otherwise",
  "9846": " riddle",
  "9847": " confidently",
  "9848": " Sitting",
  "9849": " Cathy",
  "9850": "idi",
  "9851": "Sadie",
  "9852": " lil",
  "9853": " handy",
  "9854": " croak",
  "9855": " pizzas",
  "9856": " gradually",
  "9857": " cluck",
  "9858": "gr",
  "9859": " towns",
  "9860": " scre",
  "9861": "of",
  "9862": "los",
  "9863": "andel",
  "9864": " rotted",
  "9865": " royal",
  "9866": " gooey",
  "9867": "uffin",
  "9868": "imbo",
  "9869": "Bless",
  "9870": " softest",
  "9871": " detect",
  "9872": " Wolf",
  "9873": " Moon",
  "9874": " Kyle",
  "9875": " Ber",
  "9876": " shoelaces",
  "9877": " laws",
  "9878": " escap",
  "9879": " Josie",
  "9880": "rings",
  "9881": " toppings",
  "9882": " stings",
  "9883": " galloped",
  "9884": " bloss",
  "9885": " appearance",
  "9886": " Violet",
  "9887": "ousy",
  "9888": "eor",
  "9889": " Jes",
  "9890": " Bruno",
  "9891": " Books",
  "9892": "orse",
  "9893": "Abbie",
  "9894": " flavour",
  "9895": " Summer",
  "9896": " Lightning",
  "9897": " Char",
  "9898": " tiring",
  "9899": "bel",
  "9900": " steered",
  "9901": " sends",
  "9902": " Hi",
  "9903": "zing",
  "9904": "OO",
  "9905": " tastiest",
  "9906": " sinking",
  "9907": " ass",
  "9908": " Rita",
  "9909": "ongratulations",
  "9910": "Care",
  "9911": " unicorns",
  "9912": " echo",
  "9913": "fived",
  "9914": "Frankie",
  "9915": " overhe",
  "9916": " enjoys",
  "9917": " Nate",
  "9918": "losure",
  "9919": "inner",
  "9920": "Rain",
  "9921": " freely",
  "9922": " enclosure",
  "9923": "Playing",
  "9924": " Jonathan",
  "9925": " Colin",
  "9926": "Lucky",
  "9927": " science",
  "9928": " peacefulness",
  "9929": " host",
  "9930": " Er",
  "9931": " Clean",
  "9932": "izza",
  "9933": " scrubbing",
  "9934": "Laura",
  "9935": " route",
  "9936": " hovered",
  "9937": " globe",
  "9938": " boiled",
  "9939": "Guess",
  "9940": " sparrow",
  "9941": " hare",
  "9942": " crushed",
  "9943": " automobiles",
  "9944": "why",
  "9945": "hh",
  "9946": "Right",
  "9947": "Momo",
  "9948": " rooster",
  "9949": " pecking",
  "9950": " niece",
  "9951": " carton",
  "9952": " brakes",
  "9953": " Doctor",
  "9954": "good",
  "9955": "arning",
  "9956": "ality",
  "9957": " scrunched",
  "9958": " hates",
  "9959": " guesses",
  "9960": " earrings",
  "9961": " Things",
  "9962": " risky",
  "9963": " occasions",
  "9964": " gorge",
  "9965": " Alan",
  "9966": " mashed",
  "9967": " beeping",
  "9968": "aly",
  "9969": " stacks",
  "9970": " lilies",
  "9971": " lur",
  "9972": " fluff",
  "9973": " dumb",
  "9974": " Minnie",
  "9975": "Rabbit",
  "9976": " lightly",
  "9977": " leaped",
  "9978": " Fortunately",
  "9979": " Avery",
  "9980": "ki",
  "9981": "cloth",
  "9982": " whizz",
  "9983": " macar",
  "9984": " god",
  "9985": " fuss",
  "9986": " ashes",
  "9987": " Carol",
  "9988": "umn",
  "9989": " snuggling",
  "9990": " hunger",
  "9991": " fail",
  "9992": " dusted",
  "9993": " winners",
  "9994": " restoring",
  "9995": " pounding",
  "9996": " plumber",
  "9997": " Stanley",
  "9998": "elve",
  "9999": " taps"
}